{
  "version": "1.0",
  "truncation": null,
  "padding": null,
  "added_tokens": [
    {
      "id": 0,
      "content": "[UNK]",
      "single_word": false,
      "lstrip": false,
      "rstrip": false,
      "normalized": false,
      "special": true
    },
    {
      "id": 1,
      "content": "[PAD]",
      "single_word": false,
      "lstrip": false,
      "rstrip": false,
      "normalized": false,
      "special": true
    },
    {
      "id": 2,
      "content": "[CLS]",
      "single_word": false,
      "lstrip": false,
      "rstrip": false,
      "normalized": false,
      "special": true
    },
    {
      "id": 3,
      "content": "[SEP]",
      "single_word": false,
      "lstrip": false,
      "rstrip": false,
      "normalized": false,
      "special": true
    },
    {
      "id": 4,
      "content": "[MASK]",
      "single_word": false,
      "lstrip": false,
      "rstrip": false,
      "normalized": false,
      "special": true
    }
  ],
  "normalizer": null,
  "pre_tokenizer": {
    "type": "ByteLevel",
    "add_prefix_space": true,
    "trim_offsets": true,
    "use_regex": true
  },
  "post_processor": null,
  "decoder": {
    "type": "ByteLevel",
    "add_prefix_space": true,
    "trim_offsets": true,
    "use_regex": true
  },
  "model": {
    "type": "BPE",
    "dropout": null,
    "unk_token": "[UNK]",
    "continuing_subword_prefix": null,
    "end_of_word_suffix": null,
    "fuse_unk": false,
    "byte_fallback": false,
    "ignore_merges": false,
    "vocab": {
      "[UNK]": 0,
      "[PAD]": 1,
      "[CLS]": 2,
      "[SEP]": 3,
      "[MASK]": 4,
      "!": 5,
      "\"": 6,
      "&": 7,
      "'": 8,
      "(": 9,
      ")": 10,
      "*": 11,
      ",": 12,
      "-": 13,
      ".": 14,
      "/": 15,
      "0": 16,
      "1": 17,
      "2": 18,
      "3": 19,
      "4": 20,
      "5": 21,
      "6": 22,
      "7": 23,
      "8": 24,
      "9": 25,
      ":": 26,
      ";": 27,
      "<": 28,
      "=": 29,
      ">": 30,
      "?": 31,
      "A": 32,
      "B": 33,
      "C": 34,
      "D": 35,
      "E": 36,
      "F": 37,
      "G": 38,
      "H": 39,
      "I": 40,
      "J": 41,
      "K": 42,
      "L": 43,
      "M": 44,
      "N": 45,
      "O": 46,
      "P": 47,
      "Q": 48,
      "R": 49,
      "S": 50,
      "T": 51,
      "U": 52,
      "V": 53,
      "W": 54,
      "X": 55,
      "Y": 56,
      "Z": 57,
      "[": 58,
      "\\": 59,
      "]": 60,
      "^": 61,
      "_": 62,
      "`": 63,
      "a": 64,
      "b": 65,
      "c": 66,
      "d": 67,
      "e": 68,
      "f": 69,
      "g": 70,
      "h": 71,
      "i": 72,
      "j": 73,
      "k": 74,
      "l": 75,
      "m": 76,
      "n": 77,
      "o": 78,
      "p": 79,
      "q": 80,
      "r": 81,
      "s": 82,
      "t": 83,
      "u": 84,
      "v": 85,
      "w": 86,
      "x": 87,
      "y": 88,
      "z": 89,
      "{": 90,
      "|": 91,
      "}": 92,
      "¢": 93,
      "£": 94,
      "¦": 95,
      "©": 96,
      "«": 97,
      "°": 98,
      "»": 99,
      "¼": 100,
      "Â": 101,
      "Ã": 102,
      "Ë": 103,
      "â": 104,
      "Ċ": 105,
      "Ġ": 106,
      "Ģ": 107,
      "ĵ": 108,
      "Ķ": 109,
      "ĺ": 110,
      "Ļ": 111,
      "ľ": 112,
      "Ŀ": 113,
      "Ġt": 114,
      "he": 115,
      "Ġa": 116,
      "in": 117,
      "âĢ": 118,
      "Ġs": 119,
      "Ġw": 120,
      "Ġthe": 121,
      "re": 122,
      "ou": 123,
      "Ġh": 124,
      "ed": 125,
      "on": 126,
      "ing": 127,
      "er": 128,
      "ar": 129,
      "nd": 130,
      "Ġb": 131,
      "ĠĊ": 132,
      "Ġf": 133,
      "Ġo": 134,
      "ĠH": 135,
      "ĠâĢ": 136,
      "at": 137,
      "is": 138,
      "Ġto": 139,
      "it": 140,
      "Ġc": 141,
      "as": 142,
      "ll": 143,
      "or": 144,
      "id": 145,
      "Ġhe": 146,
      "en": 147,
      "Ġd": 148,
      "Ġm": 149,
      "Ġl": 150,
      "Ġand": 151,
      "Ġth": 152,
      "Ġof": 153,
      "ĠâĢľ": 154,
      "âĢĻ": 155,
      "ry": 156,
      "âĢĿ": 157,
      "Ġp": 158,
      "es": 159,
      "Ġha": 160,
      "Ġin": 161,
      "Ġg": 162,
      "an": 163,
      "Ġn": 164,
      "le": 165,
      "arry": 166,
      "ow": 167,
      "Ġsa": 168,
      "ly": 169,
      "ĠHarry": 170,
      "ot": 171,
      "Ġy": 172,
      "om": 173,
      "Ġwas": 174,
      "Ġbe": 175,
      "gh": 176,
      "Ġsaid": 177,
      "Ġe": 178,
      "ac": 179,
      "Ġhis": 180,
      "ld": 181,
      "Ġyou": 182,
      "im": 183,
      "us": 184,
      "ve": 185,
      "Ġst": 186,
      "oo": 187,
      "Ġit": 188,
      "ĠI": 189,
      "Ġon": 190,
      "et": 191,
      "ic": 192,
      "ver": 193,
      "ion": 194,
      "ro": 195,
      "Ġwh": 196,
      "ir": 197,
      "Ġhad": 198,
      "ut": 199,
      "ĠT": 200,
      "Ġthat": 201,
      "ght": 202,
      "ĠM": 203,
      "out": 204,
      "Ġwe": 205,
      "ent": 206,
      "ad": 207,
      "Ġat": 208,
      "Ġas": 209,
      "Ġu": 210,
      "ĠS": 211,
      "Ġre": 212,
      "ur": 213,
      "ĠD": 214,
      "al": 215,
      "Ġ'": 216,
      "Ġhim": 217,
      "ore": 218,
      "se": 219,
      "ag": 220,
      "st": 221,
      "ri": 222,
      "ĠR": 223,
      "Ġwit": 224,
      "ke": 225,
      "ch": 226,
      "ook": 227,
      "ould": 228,
      "Ġwith": 229,
      "red": 230,
      "ay": 231,
      ",âĢĿ": 232,
      "Ġan": 233,
      "Ġfor": 234,
      "am": 235,
      "Ġse": 236,
      "'s": 237,
      "ter": 238,
      "her": 239,
      "um": 240,
      "ĠP": 241,
      "pp": 242,
      "all": 243,
      "ĠThe": 244,
      "ĠRon": 245,
      "Ġnot": 246,
      "ill": 247,
      "ĠA": 248,
      "ack": 249,
      "rou": 250,
      "ard": 251,
      "Ġsh": 252,
      "led": 253,
      "erm": 254,
      "Ġk": 255,
      "pe": 256,
      "ĠHe": 257,
      "Ġher": 258,
      "ain": 259,
      "em": 260,
      "Ġlook": 261,
      "ermion": 262,
      "ermione": 263,
      "ĠW": 264,
      "Ġfr": 265,
      "Ġup": 266,
      "ĠHermione": 267,
      "Ġdo": 268,
      "ight": 269,
      "Ġthey": 270,
      "ce": 271,
      "Ġout": 272,
      "ess": 273,
      "?âĢĿ": 274,
      "ĠâĢĺ": 275,
      "âĢ¦": 276,
      "un": 277,
      "and": 278,
      "ind": 279,
      "ge": 280,
      "ĠB": 281,
      ".âĢĿ": 282,
      "Ġwere": 283,
      "Ġme": 284,
      "Ġthem": 285,
      "Ġne": 286,
      "Ġkn": 287,
      "Ġ-": 288,
      "il": 289,
      "ĠG": 290,
      "ted": 291,
      "Ġr": 292,
      "ĠC": 293,
      "Ġfe": 294,
      "to": 295,
      "Ġall": 296,
      "ak": 297,
      "ĠF": 298,
      "if": 299,
      "Ġbut": 300,
      "Ġshe": 301,
      "Ġhave": 302,
      "Ġfrom": 303,
      "Ġj": 304,
      "umb": 305,
      "hing": 306,
      "ust": 307,
      "Ġgo": 308,
      "ck": 309,
      "ome": 310,
      "very": 311,
      "ell": 312,
      "ood": 313,
      "Ġso": 314,
      "ast": 315,
      "hed": 316,
      "one": 317,
      "ble": 318,
      "lo": 319,
      "Ġwhe": 320,
      "Ġback": 321,
      "!âĢĿ": 322,
      "qu": 323,
      "ort": 324,
      "umbled": 325,
      "Ġinto": 326,
      "'t": 327,
      "Ġli": 328,
      "own": 329,
      "ide": 330,
      "ĠL": 331,
      "Ġdid": 332,
      "umbledore": 333,
      "Ġwho": 334,
      "Ġwhat": 335,
      "Ġcould": 336,
      "Ġv": 337,
      "ud": 338,
      "ant": 339,
      "art": 340,
      "round": 341,
      "Ġbeen": 342,
      "rid": 343,
      "our": 344,
      "Ġis": 345,
      "Ġthou": 346,
      "ĠDumbledore": 347,
      "Ġab": 348,
      "Ġex": 349,
      "Ġle": 350,
      "ink": 351,
      ",'": 352,
      "ist": 353,
      "Ġno": 354,
      "lf": 355,
      "ra": 356,
      "Ġag": 357,
      "Ġro": 358,
      "ice": 359,
      "ous": 360,
      "Ġal": 361,
      "ct": 362,
      "ong": 363,
      "ff": 364,
      "Ġde": 365,
      "ul": 366,
      "ace": 367,
      "You": 368,
      "oy": 369,
      "Ġthis": 370,
      "Ġover": 371,
      "ers": 372,
      "ley": 373,
      "ked": 374,
      "ss": 375,
      "Ġwould": 376,
      "Ġthere": 377,
      "hat": 378,
      "Ġsu": 379,
      "ig": 380,
      "Ġknow": 381,
      "na": 382,
      "ĠâĢĶ": 383,
      "Ġtheir": 384,
      "ep": 385,
      "Ġpo": 386,
      "old": 387,
      "Ġabout": 388,
      "Ġdown": 389,
      "Ġoff": 390,
      "Ġany": 391,
      "ven": 392,
      "ther": 393,
      "ĠN": 394,
      "Ġch": 395,
      "el": 396,
      "Ġone": 397,
      "Ġagain": 398,
      "Ġlike": 399,
      "way": 400,
      "urn": 401,
      "Ġlooked": 402,
      "Ġsp": 403,
      "Ġ.": 404,
      "Ġqu": 405,
      "ting": 406,
      "Ġnow": 407,
      "ick": 408,
      "Ġcon": 409,
      "Ġus": 410,
      "Ġyour": 411,
      "ass": 412,
      "Ġun": 413,
      "op": 414,
      "iz": 415,
      "Ġaround": 416,
      "Ġhand": 417,
      "ime": 418,
      "ally": 419,
      "Ġey": 420,
      "ie": 421,
      "ĠWe": 422,
      "ull": 423,
      "are": 424,
      "Ġby": 425,
      "Ġwor": 426,
      "Ġthink": 427,
      "ap": 428,
      "fess": 429,
      "ĠMr": 430,
      "Ġgot": 431,
      "Ġjust": 432,
      "ĠPro": 433,
      "?'": 434,
      "ered": 435,
      "fessor": 436,
      "Ġthen": 437,
      "Ġcan": 438,
      "ake": 439,
      "ark": 440,
      "agrid": 441,
      "Ġtoo": 442,
      "right": 443,
      "Ġare": 444,
      "Ġbl": 445,
      "Ġsc": 446,
      "est": 447,
      "Ġsee": 448,
      "ward": 449,
      "Ġget": 450,
      "Ġif": 451,
      "reat": 452,
      "ĠV": 453,
      "Ġpl": 454,
      "Ġwhen": 455,
      "Ġcl": 456,
      "ĠHagrid": 457,
      "Ġmore": 458,
      "Ġsl": 459,
      "up": 460,
      "Ġvery": 461,
      "ear": 462,
      "ĠâĢĵ": 463,
      "Ġmy": 464,
      "ĠProfessor": 465,
      "bb": 466,
      "Ġwand": 467,
      "Ġor": 468,
      "ĠO": 469,
      "nape": 470,
      "ame": 471,
      "Ġmo": 472,
      "ive": 473,
      "ĠE": 474,
      "Ġhead": 475,
      "Ġcom": 476,
      "og": 477,
      "ĠSnape": 478,
      "Ġthough": 479,
      "self": 480,
      "ate": 481,
      "asley": 482,
      "Ġtw": 483,
      "ang": 484,
      "Ġtime": 485,
      "Ġsm": 486,
      "ĠWeasley": 487,
      "Ġdoor": 488,
      "pped": 489,
      "ound": 490,
      "ĠIt": 491,
      "Ġstill": 492,
      "rough": 493,
      "Ġhow": 494,
      "ved": 495,
      "Ġvo": 496,
      "ond": 497,
      "ation": 498,
      "ared": 499,
      "Ġeyes": 500,
      "ĠâĢ¦": 501,
      "Ġtr": 502,
      "orn": 503,
      "ving": 504,
      "Ġdon": 505,
      "Ġlooking": 506,
      "Ġturn": 507,
      "ius": 508,
      "air": 509,
      "Ġthan": 510,
      "ich": 511,
      "Ġface": 512,
      "Ġsome": 513,
      "Ġgl": 514,
      "Ġthrough": 515,
      "fore": 516,
      ".'": 517,
      "Ġar": 518,
      "ite": 519,
      "nder": 520,
      "Ġright": 521,
      "ath": 522,
      "ure": 523,
      "ily": 524,
      "Ġother": 525,
      "Ġgoing": 526,
      "alf": 527,
      "Ġvoice": 528,
      "au": 529,
      "Ġseem": 530,
      "inn": 531,
      "pt": 532,
      "gg": 533,
      "ave": 534,
      "ious": 535,
      "Ġwhich": 536,
      "tle": 537,
      "ĠThey": 538,
      "ree": 539,
      "ened": 540,
      "Ġsw": 541,
      "Ġgr": 542,
      "ire": 543,
      "Ġsay": 544,
      "Ġbefore": 545,
      "Ġfl": 546,
      "Ġthought": 547,
      "other": 548,
      "ol": 549,
      "ĠU": 550,
      "aus": 551,
      "fter": 552,
      "Ġevery": 553,
      "alfoy": 554,
      ",âĢĻ": 555,
      "ĠPot": 556,
      "able": 557,
      "omet": 558,
      "ling": 559,
      "Ġdidn": 560,
      "Ġman": 561,
      "Ġen": 562,
      "Ġwill": 563,
      "Ġhere": 564,
      "ĠMalfoy": 565,
      "wn": 566,
      "Ġroom": 567,
      "th": 568,
      "Ġclo": 569,
      "idd": 570,
      "ched": 571,
      "aking": 572,
      "ab": 573,
      "ade": 574,
      "Ġop": 575,
      "orm": 576,
      "ft": 577,
      "Ġlong": 578,
      "od": 579,
      "Ġpre": 580,
      "side": 581,
      "ĠK": 582,
      "ile": 583,
      "Ġonly": 584,
      "Ġim": 585,
      "!'": 586,
      "What": 587,
      "emort": 588,
      "oldemort": 589,
      "Ġwat": 590,
      "Ġte": 591,
      "aring": 592,
      "ho": 593,
      "king": 594,
      "omething": 595,
      "Ġsaw": 596,
      "ts": 597,
      "The": 598,
      "Ġunder": 599,
      "Ġdis": 600,
      "ĠVoldemort": 601,
      "Ġbeh": 602,
      "Ġwant": 603,
      "Ġpe": 604,
      "Ġhapp": 605,
      "Ġtell": 606,
      "Ġkne": 607,
      "Ġway": 608,
      "Ġwhere": 609,
      "age": 610,
      "row": 611,
      "Ġafter": 612,
      "ried": 613,
      "ather": 614,
      "sed": 615,
      "izard": 616,
      "ves": 617,
      "Ġke": 618,
      "te": 619,
      "Ġmu": 620,
      "ment": 621,
      "Ġbec": 622,
      "irius": 623,
      "Ġapp": 624,
      "Ġseemed": 625,
      "thing": 626,
      "Ġlo": 627,
      "Ġaway": 628,
      "Ġsomething": 629,
      "Ġhimself": 630,
      "Ġfir": 631,
      "Ġlet": 632,
      "Ġlit": 633,
      "ĠAnd": 634,
      "Ġbet": 635,
      "Ġbehind": 636,
      "ĠPotter": 637,
      "Ġeven": 638,
      "Ġasked": 639,
      "ĠShe": 640,
      "ause": 641,
      "Ġrem": 642,
      "mb": 643,
      "Ġspe": 644,
      "ect": 645,
      "It": 646,
      "Ġtold": 647,
      "Ġturned": 648,
      "ever": 649,
      "Ġbr": 650,
      "ĠSirius": 651,
      "ks": 652,
      "ated": 653,
      "Ġtoward": 654,
      "Ġnever": 655,
      "Ġlast": 656,
      "Ġcome": 657,
      "lt": 658,
      "Ġac": 659,
      "ĠHog": 660,
      "ĠBut": 661,
      "Ġpoin": 662,
      "ĠDe": 663,
      "act": 664,
      "Ġthing": 665,
      "Ġpro": 666,
      "Ġmom": 667,
      "agic": 668,
      "ine": 669,
      "Ġmoment": 670,
      "ance": 671,
      "Ġmuch": 672,
      "He": 673,
      "Ġtry": 674,
      "oll": 675,
      "ach": 676,
      "ool": 677,
      "dd": 678,
      "Ġknew": 679,
      "uff": 680,
      "'ve": 681,
      "ue": 682,
      "Ġshould": 683,
      "ress": 684,
      "ople": 685,
      "ied": 686,
      "ching": 687,
      "ering": 688,
      "ord": 689,
      "Ġonce": 690,
      "ĠCh": 691,
      "Ġlittle": 692,
      "ĠThere": 693,
      "?âĢĻ": 694,
      "'re": 695,
      "Ġfirst": 696,
      "Ġsil": 697,
      "arts": 698,
      "Well": 699,
      "Ġyear": 700,
      "ĠYou": 701,
      "ful": 702,
      "Ġsec": 703,
      "ugg": 704,
      "Ġhas": 705,
      "Ġmade": 706,
      "Ġheard": 707,
      "nt": 708,
      "Ġleft": 709,
      "Ġpr": 710,
      "Ġtwo": 711,
      "ont": 712,
      "ped": 713,
      "ody": 714,
      "ĠMin": 715,
      "We": 716,
      "Ġbot": 717,
      "Ġwa": 718,
      "ish": 719,
      "ase": 720,
      "ise": 721,
      "Ġgood": 722,
      "ĠFred": 723,
      "Ġfelt": 724,
      "But": 725,
      "warts": 726,
      "ĠMrs": 727,
      "uck": 728,
      "les": 729,
      "Ġwizard": 730,
      "Ġdes": 731,
      "owed": 732,
      "Ġpeople": 733,
      "!âĢĻ": 734,
      "ĠNe": 735,
      "Ġcont": 736,
      "itch": 737,
      "ple": 738,
      "No": 739,
      "ber": 740,
      "ĠHogwarts": 741,
      "ady": 742,
      "Ġho": 743,
      "Ġits": 744,
      "Ġpull": 745,
      "Ġreally": 746,
      "Ġdark": 747,
      "Ġwell": 748,
      "room": 749,
      "ence": 750,
      "Ġmight": 751,
      "Ġatt": 752,
      "ised": 753,
      "ross": 754,
      "ies": 755,
      "udd": 756,
      "Ġtal": 757,
      "Ġarm": 758,
      "hen": 759,
      "Ġsn": 760,
      "less": 761,
      "ions": 762,
      "Ġwal": 763,
      "ough": 764,
      "Ġflo": 765,
      "ory": 766,
      "xt": 767,
      "ille": 768,
      "per": 769,
      "upin": 770,
      "ock": 771,
      "rie": 772,
      "Ġneed": 773,
      "Ġever": 774,
      "Ġstr": 775,
      "Ġfront": 776,
      "ĠMc": 777,
      "ĠLupin": 778,
      "inny": 779,
      "ah": 780,
      "Ġwind": 781,
      "Ġam": 782,
      "Ġfeel": 783,
      "ity": 784,
      "Ġsure": 785,
      "Qu": 786,
      "ouse": 787,
      "ors": 788,
      "Ġdr": 789,
      "eor": 790,
      "ose": 791,
      "Oh": 792,
      "eorge": 793,
      "Ġche": 794,
      "oud": 795,
      "Ġopen": 796,
      "ĠTh": 797,
      "ville": 798,
      "arm": 799,
      "ĠGeorge": 800,
      "Ġmust": 801,
      "Ġcr": 802,
      "âĢ¦âĢĿ": 803,
      "Ġmean": 804,
      "'ll": 805,
      "arge": 806,
      "Ġold": 807,
      "me": 808,
      "here": 809,
      "ung": 810,
      "And": 811,
      "pl": 812,
      "Ġcame": 813,
      "ign": 814,
      "ced": 815,
      "Ġfeet": 816,
      "ons": 817,
      "cy": 818,
      "Ġhur": 819,
      "Ġbel": 820,
      "ĠNeville": 821,
      "Ġpass": 822,
      "Ġimp": 823,
      "Ġbecause": 824,
      "ream": 825,
      "Ġput": 826,
      "agall": 827,
      "Gon": 828,
      "Gonagall": 829,
      "ĠGinny": 830,
      "Ġown": 831,
      "ĠMcGonagall": 832,
      "unn": 833,
      "rew": 834,
      "Ġend": 835,
      "ĠQu": 836,
      "Ġfind": 837,
      "Ġsur": 838,
      "Ġcle": 839,
      "eah": 840,
      "Ġent": 841,
      "Ġter": 842,
      "anted": 843,
      "Ġtook": 844,
      "Ġday": 845,
      "ourse": 846,
      "be": 847,
      "Ġbit": 848,
      "Ġfew": 849,
      "Ġanything": 850,
      "Ġgreat": 851,
      "Ġsupp": 852,
      "Ġbed": 853,
      "Ġhard": 854,
      "Ġhel": 855,
      "Ġstand": 856,
      "Ġtrying": 857,
      "Ġtake": 858,
      "chool": 859,
      "Ġtable": 860,
      "Ġmake": 861,
      "ished": 862,
      "ents": 863,
      "ater": 864,
      "Ġwr": 865,
      "Ġlight": 866,
      "ryff": 867,
      "ĠIn": 868,
      ".âĢĻ": 869,
      "Ġwent": 870,
      "Ġgi": 871,
      "ank": 872,
      "ryffind": 873,
      "iff": 874,
      "hes": 875,
      "ost": 876,
      "Ġsecond": 877,
      "ern": 878,
      "we": 879,
      "Ġword": 880,
      "Ġanother": 881,
      "Ġnext": 882,
      "ridge": 883,
      "ĠGryffind": 884,
      "ĠâĢĶâĢĿ": 885,
      "Ġhands": 886,
      "Ġfloor": 887,
      "Ġkeep": 888,
      "'d": 889,
      "Ġcur": 890,
      "Ġnight": 891,
      "Ġside": 892,
      "Ġschool": 893,
      "'m": 894,
      "Ġinside": 895,
      "ove": 896,
      "arly": 897,
      "oot": 898,
      "iet": 899,
      "Ġwhile": 900,
      "iously": 901,
      "Ġboy": 902,
      "Ġsound": 903,
      "ully": 904,
      "Ġlarge": 905,
      "Ġnew": 906,
      "Ġem": 907,
      "Ġra": 908,
      "cle": 909,
      "tered": 910,
      "Ġfound": 911,
      "Ġwhis": 912,
      "Ġcall": 913,
      "mbridge": 914,
      "body": 915,
      "ee": 916,
      "Ġwindow": 917,
      "Ġlau": 918,
      "Ġblack": 919,
      "ĠBl": 920,
      "Ġthree": 921,
      "Ġset": 922,
      "Ġhouse": 923,
      "Ġloud": 924,
      "Yes": 925,
      "acher": 926,
      "get": 927,
      "ty": 928,
      "Ġel": 929,
      "Harry": 930,
      "az": 931,
      "app": 932,
      "sh": 933,
      "ĠUmbridge": 934,
      "ne": 935,
      "Ġhair": 936,
      "Ġret": 937,
      "ix": 938,
      "ement": 939,
      "ip": 940,
      "Ġsit": 941,
      "ary": 942,
      "Ġper": 943,
      "Ġseen": 944,
      "istry": 945,
      "Ġcourse": 946,
      "Ġgave": 947,
      "ĠDeath": 948,
      "Ġground": 949,
      "Ġnothing": 950,
      "Ġhelp": 951,
      "ĠJ": 952,
      "Ġhear": 953,
      "Ġstood": 954,
      "ild": 955,
      "ĠMinistry": 956,
      "bl": 957,
      "ail": 958,
      "ĠGryffindor": 959,
      "ating": 960,
      "hy": 961,
      "ĠSt": 962,
      "udden": 963,
      "Ġfin": 964,
      "Ġreal": 965,
      "Ġjo": 966,
      "aw": 967,
      "Ġhalf": 968,
      "Ġwhy": 969,
      "airs": 970,
      "igh": 971,
      "Ġsk": 972,
      "Ġair": 973,
      "Ġpulled": 974,
      "Ġbook": 975,
      "Ġsudden": 976,
      "iss": 977,
      "Ġour": 978,
      "ightly": 979,
      "Ġwall": 980,
      "ĠUn": 981,
      "Ġmat": 982,
      "Ġupon": 983,
      "ower": 984,
      "Yeah": 985,
      "ness": 986,
      "Ġ`": 987,
      "ĠDo": 988,
      "Ġshout": 989,
      "av": 990,
      "Ġcast": 991,
      "Ġlif": 992,
      "ached": 993,
      "oody": 994,
      "Ġwanted": 995,
      "Ġacross": 996,
      "Ġsat": 997,
      "Ġbeg": 998,
      "bby": 999,
      "ans": 1000,
      "Ġbeing": 1001,
      "Ġeach": 1002,
      "Ġ-'": 1003,
      "Ġfell": 1004,
      "Ġquick": 1005,
      "Ġwait": 1006,
      "Ġsqu": 1007,
      "Ġfire": 1008,
      "Ġplace": 1009,
      "udge": 1010,
      "ways": 1011,
      "Ġwasn": 1012,
      "ump": 1013,
      "Ġstud": 1014,
      "Ġfoll": 1015,
      "ible": 1016,
      "ently": 1017,
      "Ġmost": 1018,
      "Ġboth": 1019,
      "ĠHis": 1020,
      "Ġwithout": 1021,
      "unt": 1022,
      "ng": 1023,
      "ings": 1024,
      "Ġcor": 1025,
      "Ġquiet": 1026,
      "ĠMad": 1027,
      "Ġalong": 1028,
      "Ġdone": 1029,
      "os": 1030,
      "Ġdoes": 1031,
      "ars": 1032,
      "Ġclass": 1033,
      "ister": 1034,
      "Ġsmall": 1035,
      "Ġhappened": 1036,
      "Ġmind": 1037,
      "Ġcouldn": 1038,
      "Ġagainst": 1039,
      "ĠDark": 1040,
      "ru": 1041,
      "arted": 1042,
      "Ġquite": 1043,
      "fully": 1044,
      "Ġang": 1045,
      "ening": 1046,
      "Ġdoing": 1047,
      "outh": 1048,
      "Ġbetter": 1049,
      "riend": 1050,
      "Ġmagic": 1051,
      "aster": 1052,
      "ins": 1053,
      "Ġcare": 1054,
      "..": 1055,
      "owing": 1056,
      "cted": 1057,
      "ĠPer": 1058,
      "Ġunt": 1059,
      "ib": 1060,
      "ric": 1061,
      "ernon": 1062,
      "li": 1063,
      "pered": 1064,
      "iling": 1065,
      "ĠThen": 1066,
      "ying": 1067,
      "Ġbreat": 1068,
      "Ġenough": 1069,
      "lu": 1070,
      "Ġste": 1071,
      "Ġelse": 1072,
      "eh": 1073,
      "ey": 1074,
      "Ġexpe": 1075,
      "ĠVernon": 1076,
      "ĠMugg": 1077,
      "bes": 1078,
      "ĠMoody": 1079,
      "Ġeye": 1080,
      "Ġple": 1081,
      "ized": 1082,
      "ined": 1083,
      "Ġfam": 1084,
      "ĠMagic": 1085,
      "Ġkill": 1086,
      "Ġmouth": 1087,
      "ready": 1088,
      "ĠHall": 1089,
      "tain": 1090,
      "Ġhold": 1091,
      "amp": 1092,
      "ten": 1093,
      "Ġmut": 1094,
      "Ġless": 1095,
      "Ġgre": 1096,
      "urs": 1097,
      "Ġcau": 1098,
      "cl": 1099,
      "und": 1100,
      "ret": 1101,
      "Ġalready": 1102,
      "pr": 1103,
      "Ġmin": 1104,
      "Ġres": 1105,
      "ĠAs": 1106,
      "Ġyell": 1107,
      "Ġyears": 1108,
      "Ġwalked": 1109,
      "lyther": 1110,
      "Ġrobes": 1111,
      "awn": 1112,
      "reak": 1113,
      "Ġremem": 1114,
      "ia": 1115,
      "arn": 1116,
      "Ġstaring": 1117,
      "Ġbelie": 1118,
      "Ġfriend": 1119,
      "ĠUncle": 1120,
      "ĠFudge": 1121,
      "So": 1122,
      "Ġpast": 1123,
      "Ġpart": 1124,
      "eared": 1125,
      "Ġbo": 1126,
      "Ġdiff": 1127,
      "ĠPet": 1128,
      "ince": 1129,
      "Ġforward": 1130,
      "Ġgold": 1131,
      "Ġread": 1132,
      "iddle": 1133,
      "form": 1134,
      "ĠSlyther": 1135,
      "Ġrest": 1136,
      "anger": 1137,
      "ably": 1138,
      "Ġtre": 1139,
      "Ġtop": 1140,
      "pping": 1141,
      "ween": 1142,
      "Who": 1143,
      "Ġthose": 1144,
      "Ġrather": 1145,
      "Ġgone": 1146,
      "Ġwhispered": 1147,
      "Ġwon": 1148,
      "ained": 1149,
      "Ġbetween": 1150,
      "Ġreturn": 1151,
      "ĠAr": 1152,
      "Ġsna": 1153,
      "Ġsuddenly": 1154,
      "Ġthese": 1155,
      "Ġstanding": 1156,
      "ged": 1157,
      "most": 1158,
      "Ġscar": 1159,
      "Ġob": 1160,
      "dded": 1161,
      "Ġinst": 1162,
      "Ġuntil": 1163,
      "Ġbegan": 1164,
      "udley": 1165,
      "Ġcar": 1166,
      "Ġgive": 1167,
      "Ġclose": 1168,
      "Ġmany": 1169,
      "Ġopened": 1170,
      "Ġfull": 1171,
      "Ġrec": 1172,
      "Ġtowards": 1173,
      "wl": 1174,
      "Ġbro": 1175,
      "you": 1176,
      "Ġtried": 1177,
      "Ġcold": 1178,
      "ange": 1179,
      "Ġonto": 1180,
      "Ġslightly": 1181,
      "Ġlist": 1182,
      "Ġwond": 1183,
      "ens": 1184,
      "Ġglass": 1185,
      "ĠGr": 1186,
      "idditch": 1187,
      "oke": 1188,
      "Ġsto": 1189,
      "Ġsitting": 1190,
      "ither": 1191,
      "Ġcou": 1192,
      "Ġquickly": 1193,
      "head": 1194,
      "Ġyet": 1195,
      "Ġdro": 1196,
      "Ġtalking": 1197,
      "Ġthings": 1198,
      "Ġdist": 1199,
      "Ġsame": 1200,
      "Ġraised": 1201,
      "Ġstart": 1202,
      "That": 1203,
      "ches": 1204,
      "ĠSlu": 1205,
      "ĠDudley": 1206,
      "Ġcorrid": 1207,
      "ghorn": 1208,
      "Ġhor": 1209,
      "Ġbad": 1210,
      "Ġoffice": 1211,
      "ph": 1212,
      "Ġreached": 1213,
      "Ġminut": 1214,
      "âĢľ": 1215,
      "ĠQuidditch": 1216,
      "Ġcastle": 1217,
      "irl": 1218,
      "day": 1219,
      "Ġstarted": 1220,
      "ention": 1221,
      "ames": 1222,
      "ult": 1223,
      "Ġdeep": 1224,
      "Ġcomm": 1225,
      "ĠBlack": 1226,
      "ĠSlughorn": 1227,
      "Ġwouldn": 1228,
      "Ġunderst": 1229,
      "Ġad": 1230,
      "Ġable": 1231,
      "cket": 1232,
      "How": 1233,
      "osed": 1234,
      "ĠLord": 1235,
      "ĠAn": 1236,
      "gether": 1237,
      "vis": 1238,
      "Ġfore": 1239,
      "aken": 1240,
      "Ġexp": 1241,
      "igg": 1242,
      "Ġalmost": 1243,
      "Th": 1244,
      "Ġco": 1245,
      "Ġpain": 1246,
      "tering": 1247,
      "Ġslow": 1248,
      "ĠPercy": 1249,
      "ĠSe": 1250,
      "Ġalways": 1251,
      "lves": 1252,
      "Ġdead": 1253,
      "Ġshouted": 1254,
      "Ġide": 1255,
      "aters": 1256,
      "Ġname": 1257,
      "Ġstra": 1258,
      "Ġhigh": 1259,
      "Ġanyone": 1260,
      "erv": 1261,
      "Ġtogether": 1262,
      "Ġcoming": 1263,
      "med": 1264,
      "Ġwork": 1265,
      "Ġcalled": 1266,
      "ual": 1267,
      "Ġind": 1268,
      "Ġfather": 1269,
      "Ġuse": 1270,
      ".âĢ¦": 1271,
      "iv": 1272,
      "Ġmem": 1273,
      "ately": 1274,
      "ĠDobby": 1275,
      "Ġfur": 1276,
      "der": 1277,
      "rac": 1278,
      "ured": 1279,
      "Ġlater": 1280,
      "Ġbes": 1281,
      "Ġbroom": 1282,
      "Ġyeh": 1283,
      "Ġhour": 1284,
      "Ġfing": 1285,
      "ĠâĢĵâĢĻ": 1286,
      "Ġdrag": 1287,
      "Ġsle": 1288,
      "ron": 1289,
      "sw": 1290,
      "Ġgirl": 1291,
      "ĠWhat": 1292,
      "Ġpers": 1293,
      "Ġstared": 1294,
      "Ġcontin": 1295,
      "ere": 1296,
      "Ġfoot": 1297,
      "Ġscream": 1298,
      "Ġposs": 1299,
      "Ġfar": 1300,
      "Ġcrow": 1301,
      "Ġhowever": 1302,
      "ci": 1303,
      "Ġfour": 1304,
      "Ġgu": 1305,
      "Ġdec": 1306,
      "Ġfeeling": 1307,
      "Ġowl": 1308,
      "Ġmar": 1309,
      "Ġpar": 1310,
      "Ġwatching": 1311,
      "cus": 1312,
      "unk": 1313,
      "Ġquietly": 1314,
      "Ġcrowd": 1315,
      "ited": 1316,
      "Ġstudents": 1317,
      "raw": 1318,
      "Ġsight": 1319,
      "ought": 1320,
      "rabb": 1321,
      "ery": 1322,
      "Ġdet": 1323,
      "eps": 1324,
      "Ġsign": 1325,
      "Ġlot": 1326,
      "ued": 1327,
      "ird": 1328,
      "Ġwhole": 1329,
      "Ġmother": 1330,
      "Ġvis": 1331,
      "Ġleg": 1332,
      "ĠEaters": 1333,
      "ĠY": 1334,
      "aced": 1335,
      "Ġbeside": 1336,
      "orry": 1337,
      "ĠWhen": 1338,
      "aps": 1339,
      "ĠâĢ¦âĢĻ": 1340,
      "Ġletter": 1341,
      "ense": 1342,
      "Ġlow": 1343,
      "Ġwee": 1344,
      "Ġoutside": 1345,
      "ures": 1346,
      "Ġstraight": 1347,
      "rest": 1348,
      "ict": 1349,
      "Ġask": 1350,
      "ually": 1351,
      "Ġstop": 1352,
      "umm": 1353,
      "Ġeverything": 1354,
      "iled": 1355,
      "una": 1356,
      "Ġempt": 1357,
      "Ġheart": 1358,
      "Ġred": 1359,
      "Ġaw": 1360,
      "ith": 1361,
      "Ġansw": 1362,
      "Ġcaught": 1363,
      "ply": 1364,
      "Ġcorn": 1365,
      "ĠIf": 1366,
      "Ġidea": 1367,
      "icked": 1368,
      "Ġcat": 1369,
      "imes": 1370,
      "Ġmove": 1371,
      "Ġkept": 1372,
      "Ġlife": 1373,
      "Ġbelieve": 1374,
      "Ġbest": 1375,
      "Ġisn": 1376,
      "Ġwords": 1377,
      "ene": 1378,
      "Ġpassed": 1379,
      "Ġstopped": 1380,
      "Ġeveryone": 1381,
      "Not": 1382,
      "Ġri": 1383,
      "Ġwhether": 1384,
      "Ġsaying": 1385,
      "Ġbur": 1386,
      "rouch": 1387,
      "Ġdef": 1388,
      "ĠSlytherin": 1389,
      "Ġslowly": 1390,
      "ĠSc": 1391,
      "Ġsupposed": 1392,
      "where": 1393,
      "Ġsir": 1394,
      "Ġmuttered": 1395,
      "but": 1396,
      "Ġhit": 1397,
      "Ġhope": 1398,
      "cc": 1399,
      "Ġact": 1400,
      "Ġgetting": 1401,
      "Ġ(": 1402,
      "ĠAl": 1403,
      "acked": 1404,
      "ĠMuggle": 1405,
      "Ġhome": 1406,
      "Ġhaven": 1407,
      "ĠLuna": 1408,
      "cing": 1409,
      "Ġsince": 1410,
      "Ġwizards": 1411,
      "Ġbreath": 1412,
      "Ġsomeone": 1413,
      "Ġpot": 1414,
      "Ġbreak": 1415,
      "Ġshort": 1416,
      "Ġgreen": 1417,
      "so": 1418,
      "Ġtaken": 1419,
      "âĢ¦'": 1420,
      "ĠClo": 1421,
      "ĠMadam": 1422,
      "ĠHead": 1423,
      "fort": 1424,
      "rum": 1425,
      "edric": 1426,
      "lled": 1427,
      "aged": 1428,
      "rif": 1429,
      "Ġplay": 1430,
      "Ġstay": 1431,
      "rible": 1432,
      "cept": 1433,
      "HE": 1434,
      "Ġfall": 1435,
      "ject": 1436,
      "Ġsort": 1437,
      "Ġstone": 1438,
      "ĠCrouch": 1439,
      "Ġmoved": 1440,
      "light": 1441,
      "ĠFl": 1442,
      "Ġext": 1443,
      "Ġlaugh": 1444,
      "Ġholding": 1445,
      "reacher": 1446,
      "Ġ-âĢĿ": 1447,
      "Ġlea": 1448,
      "orning": 1449,
      "Ġdisapp": 1450,
      "Don": 1451,
      "Ġleave": 1452,
      "ursley": 1453,
      "Ġunderstand": 1454,
      "ier": 1455,
      "ĠDursley": 1456,
      "Ġcorridor": 1457,
      "phe": 1458,
      "ati": 1459,
      "ging": 1460,
      "rel": 1461,
      "Ġdi": 1462,
      "ĠAunt": 1463,
      "Ġnose": 1464,
      "Ġquest": 1465,
      "Ġcomp": 1466,
      "ĠCloak": 1467,
      "If": 1468,
      "Ġbus": 1469,
      "Ġhadn": 1470,
      "Ġappeared": 1471,
      "ĠThis": 1472,
      "Ġloudly": 1473,
      "ows": 1474,
      "Ġexam": 1475,
      "Ġshoulder": 1476,
      "Ġtaking": 1477,
      "ided": 1478,
      "Ġsilence": 1479,
      "Ġtalk": 1480,
      "Ġalone": 1481,
      "Ġempty": 1482,
      "Ġwearing": 1483,
      "Ġteacher": 1484,
      "Ġminutes": 1485,
      "Ġmaking": 1486,
      "ĠCedric": 1487,
      "iding": 1488,
      "anks": 1489,
      "Ġround": 1490,
      "Ġyes": 1491,
      "ility": 1492,
      "ĠAll": 1493,
      "Ġpoint": 1494,
      "man": 1495,
      "Ġpointed": 1496,
      "Ġsurpr": 1497,
      "ĠHow": 1498,
      "Ġarri": 1499,
      "now": 1500,
      "ertain": 1501,
      "tend": 1502,
      "haps": 1503,
      "ushed": 1504,
      "They": 1505,
      "ĠThat": 1506,
      "rave": 1507,
      "Ġsilver": 1508,
      "Ġfollowed": 1509,
      "Ġrel": 1510,
      "Ġarms": 1511,
      "read": 1512,
      "Ġbu": 1513,
      "Ġdire": 1514,
      "Ġmorning": 1515,
      "ĠAt": 1516,
      "Ġspell": 1517,
      "ale": 1518,
      "Ġhat": 1519,
      "ĠFor": 1520,
      "ken": 1521,
      "Ġpower": 1522,
      "unia": 1523,
      "ĠFil": 1524,
      "Ġpointing": 1525,
      "Ġremember": 1526,
      "bo": 1527,
      "Ġstuff": 1528,
      "Ġcloak": 1529,
      "fect": 1530,
      "iny": 1531,
      "ĠBill": 1532,
      "Ġwatched": 1533,
      "sp": 1534,
      "Ġbag": 1535,
      "ously": 1536,
      "Ġmatter": 1537,
      "Ġmeet": 1538,
      "Ġclosed": 1539,
      "Ġteam": 1540,
      "ression": 1541,
      "Why": 1542,
      "Ġwhite": 1543,
      "ĠOn": 1544,
      "Ġser": 1545,
      "Ġfly": 1546,
      "Ġce": 1547,
      "Ġmon": 1548,
      "Ġinter": 1549,
      "Ġkind": 1550,
      "Ġcomple": 1551,
      "Ġothers": 1552,
      "ĠPetunia": 1553,
      "Ġbright": 1554,
      "anced": 1555,
      "There": 1556,
      "Ġacc": 1557,
      "actly": 1558,
      "Ġdesk": 1559,
      "ror": 1560,
      "ĠRiddle": 1561,
      "Ġexc": 1562,
      "Ġspot": 1563,
      "Ġfle": 1564,
      "Ġsever": 1565,
      "Ġchair": 1566,
      "Ġhurried": 1567,
      "Ġcommon": 1568,
      "Ġthinking": 1569,
      "ĠMinister": 1570,
      "iced": 1571,
      "Ġcorner": 1572,
      "Ġseveral": 1573,
      "Ġpat": 1574,
      "Ġref": 1575,
      "selves": 1576,
      "Ġfast": 1577,
      "Ġhaving": 1578,
      "uring": 1579,
      "Ġsuch": 1580,
      "ementors": 1581,
      "vent": 1582,
      "Ġmis": 1583,
      "Ġkit": 1584,
      "antly": 1585,
      "Ġwater": 1586,
      "She": 1587,
      "ashed": 1588,
      "ĠBe": 1589,
      "oyle": 1590,
      "ĠFilch": 1591,
      "Ġru": 1592,
      "Ġfac": 1593,
      "sit": 1594,
      "orc": 1595,
      "Ġhall": 1596,
      "imb": 1597,
      "Ġshaking": 1598,
      "Ġbody": 1599,
      "Ġdoesn": 1600,
      "ired": 1601,
      "no": 1602,
      "Ġmet": 1603,
      "lock": 1604,
      "Ġfamily": 1605,
      "Ġsent": 1606,
      "rey": 1607,
      "ĠMy": 1608,
      "Ġseat": 1609,
      "Ġusual": 1610,
      "--": 1611,
      "vers": 1612,
      "Ġperson": 1613,
      "ĠKreacher": 1614,
      "Ġspeak": 1615,
      "Ġmist": 1616,
      "Ġins": 1617,
      "Ġattem": 1618,
      "Ġbooks": 1619,
      "Ġlay": 1620,
      "Ġthick": 1621,
      "chment": 1622,
      "like": 1623,
      "Ġdirect": 1624,
      "ased": 1625,
      "Ġdanger": 1626,
      "Ġnear": 1627,
      "Ġgiven": 1628,
      "Ġyelled": 1629,
      "nts": 1630,
      "Ġheld": 1631,
      "Ġheav": 1632,
      "rait": 1633,
      "Ġused": 1634,
      "Ġwatch": 1635,
      "unning": 1636,
      "Ġparchment": 1637,
      "Ġten": 1638,
      "Ġsorry": 1639,
      "esc": 1640,
      "ĠCho": 1641,
      "Ġpocket": 1642,
      "rance": 1643,
      "ising": 1644,
      "Ġwrong": 1645,
      "chen": 1646,
      "Ġtrou": 1647,
      "Ġneck": 1648,
      "Ġblood": 1649,
      "ears": 1650,
      "Ġswe": 1651,
      "idden": 1652,
      "aven": 1653,
      "ps": 1654,
      "the": 1655,
      "ash": 1656,
      "ipped": 1657,
      "Ġed": 1658,
      "Ġconf": 1659,
      "Ġunc": 1660,
      "ibility": 1661,
      "Ġkitchen": 1662,
      "rying": 1663,
      "Ġgaz": 1664,
      "enty": 1665,
      "Ġsub": 1666,
      "Ġprot": 1667,
      "Ġexpl": 1668,
      "Ġcontinued": 1669,
      "Ġadded": 1670,
      "Ġport": 1671,
      "ĠLock": 1672,
      "Ġburst": 1673,
      "ead": 1674,
      "hart": 1675,
      "Ġsim": 1676,
      "Ġfight": 1677,
      "icul": 1678,
      "ĠSn": 1679,
      "ĠFle": 1680,
      "Ġtelling": 1681,
      "Do": 1682,
      "Ġcup": 1683,
      "ork": 1684,
      "Ġvan": 1685,
      "Ġmur": 1686,
      "Ġlost": 1687,
      "awney": 1688,
      "relawney": 1689,
      "ze": 1690,
      "Ġodd": 1691,
      "ĠTrelawney": 1692,
      "Ġmoving": 1693,
      "Ġfingers": 1694,
      "sing": 1695,
      "Ġmay": 1696,
      "ĠTon": 1697,
      "ooking": 1698,
      "terest": 1699,
      "case": 1700,
      "ĠBag": 1701,
      "ĠBell": 1702,
      "ize": 1703,
      "ĠLockhart": 1704,
      "Ġshut": 1705,
      "Ġcomplete": 1706,
      "abb": 1707,
      "Ġdou": 1708,
      "Ġsaf": 1709,
      "aming": 1710,
      ".âĢ¦âĢĿ": 1711,
      "tail": 1712,
      "Ġforg": 1713,
      "Ġsmile": 1714,
      "Ġexpect": 1715,
      "undred": 1716,
      "Ġanswer": 1717,
      "Ġfree": 1718,
      "Ġfact": 1719,
      "Ġnumb": 1720,
      "Ġeither": 1721,
      "Ġstre": 1722,
      "Ġrep": 1723,
      "ĠKrum": 1724,
      "Ġdied": 1725,
      "Ġpare": 1726,
      "overed": 1727,
      "ining": 1728,
      "Ġthemselves": 1729,
      "Ġexactly": 1730,
      "ĠNo": 1731,
      "Know": 1732,
      "Ġfive": 1733,
      "Ġinc": 1734,
      "Ġinterest": 1735,
      "Ġdays": 1736,
      "Ġdiffere": 1737,
      "Ġdream": 1738,
      "rive": 1739,
      "ĠGreat": 1740,
      "raco": 1741,
      "br": 1742,
      "oun": 1743,
      "ĠGoyle": 1744,
      "Ġran": 1745,
      "Ġdear": 1746,
      "ored": 1747,
      "anded": 1748,
      "Ġsoon": 1749,
      "tom": 1750,
      "int": 1751,
      "Ġhundred": 1752,
      "let": 1753,
      "rabbe": 1754,
      "wo": 1755,
      "Ġyoung": 1756,
      "ĠTHE": 1757,
      "rux": 1758,
      "orcrux": 1759,
      "ĠFire": 1760,
      "ĠFleur": 1761,
      "Ġtiny": 1762,
      "Ġwitch": 1763,
      "ĠTonks": 1764,
      "Ġbene": 1765,
      "ĠHorcrux": 1766,
      "Ġdeath": 1767,
      "Ġspoke": 1768,
      "anged": 1769,
      "Ġpres": 1770,
      "Ġwaiting": 1771,
      "Ġportrait": 1772,
      "ye": 1773,
      "Ġtou": 1774,
      "ically": 1775,
      "Ġshook": 1776,
      "Ġplan": 1777,
      "Ġreturned": 1778,
      "Ġbell": 1779,
      "ĠOr": 1780,
      "Ġturning": 1781,
      "Ġsleep": 1782,
      "ping": 1783,
      "inging": 1784,
      "ĠâĢĿ": 1785,
      "Ġstair": 1786,
      "Ġnearly": 1787,
      "Ġknock": 1788,
      "ĠCrabbe": 1789,
      "Ġleast": 1790,
      "Ġspr": 1791,
      "Ġsnake": 1792,
      "Ġdropped": 1793,
      "aff": 1794,
      "Ġshar": 1795,
      "Ġabove": 1796,
      "Ġparents": 1797,
      "Ġshall": 1798,
      "aining": 1799,
      "Ġnoise": 1800,
      "ntly": 1801,
      "ĠBagman": 1802,
      "cent": 1803,
      "Ġstairs": 1804,
      "ĠSo": 1805,
      "Ġnoticed": 1806,
      "Ġago": 1807,
      "ively": 1808,
      "inning": 1809,
      "ĠCharm": 1810,
      "ces": 1811,
      "ingly": 1812,
      "ĠDraco": 1813,
      "stairs": 1814,
      "ĠDursleys": 1815,
      "Ġalso": 1816,
      "apter": 1817,
      "Ġdarkness": 1818,
      "Ġpur": 1819,
      "Ġsteps": 1820,
      "OU": 1821,
      "eak": 1822,
      "Ġtri": 1823,
      "Ġwide": 1824,
      "ets": 1825,
      "umped": 1826,
      "Ġentered": 1827,
      "ax": 1828,
      "Ġgas": 1829,
      "roll": 1830,
      "Ġrun": 1831,
      "Ġclut": 1832,
      "Ġhurt": 1833,
      "Ġtimes": 1834,
      "Ġlying": 1835,
      "Ġrepe": 1836,
      "Ġappro": 1837,
      "str": 1838,
      "Ġgobl": 1839,
      "upid": 1840,
      "ĠEvery": 1841,
      "ination": 1842,
      "uth": 1843,
      "ckon": 1844,
      "Ġexcept": 1845,
      "Ġgolden": 1846,
      "Ġbeneath": 1847,
      "Ġfa": 1848,
      "Ġreg": 1849,
      "Ġdoors": 1850,
      "ald": 1851,
      "mas": 1852,
      "âĢĶ": 1853,
      "ason": 1854,
      "Ġsoft": 1855,
      "arely": 1856,
      "Ġcheck": 1857,
      "Ġnerv": 1858,
      "Ġear": 1859,
      "Ġshock": 1860,
      "Ġchest": 1861,
      "Ġfinished": 1862,
      "Ġleaving": 1863,
      "wig": 1864,
      "Ġsus": 1865,
      "Ġburn": 1866,
      "Ġcarry": 1867,
      "ĠPr": 1868,
      "Ġsumm": 1869,
      "ount": 1870,
      "Ġcase": 1871,
      "Ġears": 1872,
      "rod": 1873,
      "abin": 1874,
      "Ġgrounds": 1875,
      "board": 1876,
      "Ġceiling": 1877,
      "rist": 1878,
      "Ġwom": 1879,
      "Ġev": 1880,
      "amed": 1881,
      "Ġneare": 1882,
      "Ġwhose": 1883,
      "artment": 1884,
      "Ġspl": 1885,
      "apt": 1886,
      "Ġwrit": 1887,
      "Ġfriends": 1888,
      "My": 1889,
      "Ġdraw": 1890,
      "ressed": 1891,
      "Ġtrouble": 1892,
      "Come": 1893,
      "ren": 1894,
      "edwig": 1895,
      "Ġopp": 1896,
      "Ġmid": 1897,
      "aned": 1898,
      "ĠDean": 1899,
      "Ġpract": 1900,
      "Ġquestion": 1901,
      "Ġstaircase": 1902,
      "vo": 1903,
      "Ġthrew": 1904,
      "Ġstupid": 1905,
      "ster": 1906,
      "Ġgiant": 1907,
      "ristmas": 1908,
      "Ġcoll": 1909,
      "ĠNow": 1910,
      "Ġclear": 1911,
      "visibility": 1912,
      "Ġarrived": 1913,
      "Ġ.âĢĿ": 1914,
      "Ġcross": 1915,
      "Ġmad": 1916,
      "stick": 1917,
      "rily": 1918,
      "Ġmanaged": 1919,
      "Ġflew": 1920,
      "Ġesc": 1921,
      "Ġsix": 1922,
      "Ġlegs": 1923,
      "Er": 1924,
      "uc": 1925,
      "ghter": 1926,
      "akes": 1927,
      "ĠChristmas": 1928,
      "Ġmagical": 1929,
      "ages": 1930,
      "Ġchance": 1931,
      "Now": 1932,
      "Ġton": 1933,
      "atri": 1934,
      "rill": 1935,
      "ief": 1936,
      "ĠChapter": 1937,
      "Ġplease": 1938,
      "rified": 1939,
      "eed": 1940,
      "Ġlooks": 1941,
      "aper": 1942,
      "atrix": 1943,
      "Pro": 1944,
      "Ġap": 1945,
      "ĠHedwig": 1946,
      "ĠRe": 1947,
      "Ġrunning": 1948,
      "Ġtent": 1949,
      "ĠHer": 1950,
      "Ġint": 1951,
      "Ġenorm": 1952,
      "Ġattack": 1953,
      "Ġimport": 1954,
      "Ġglasses": 1955,
      "ger": 1956,
      "off": 1957,
      "ishing": 1958,
      "Ġeas": 1959,
      "ush": 1960,
      "Ġevening": 1961,
      "Ġwindows": 1962,
      "Ġexpression": 1963,
      "Ġpict": 1964,
      "alm": 1965,
      "illed": 1966,
      "ormtail": 1967,
      "Ġbecame": 1968,
      "Ġwalls": 1969,
      "ER": 1970,
      "not": 1971,
      "Ġcent": 1972,
      "used": 1973,
      "ĠOne": 1974,
      "Ġsays": 1975,
      "Ġlonger": 1976,
      "Good": 1977,
      "work": 1978,
      "Ġwarn": 1979,
      "Ġcreat": 1980,
      "Ġpie": 1981,
      "ĠWith": 1982,
      "Ġnobody": 1983,
      "Ġworld": 1984,
      "Ġclimb": 1985,
      "Ġglanced": 1986,
      "Ġmatch": 1987,
      "Ġvanished": 1988,
      "Ġforgot": 1989,
      "Ġson": 1990,
      "Ġocc": 1991,
      "Ġcertain": 1992,
      "Ġeff": 1993,
      "Ġseized": 1994,
      "Ġpress": 1995,
      "Ġpotion": 1996,
      "ĠBellatrix": 1997,
      "IN": 1998,
      "Ġwithin": 1999,
      "Ġtrunk": 2000,
      "olt": 2001,
      "rup": 2002,
      "ug": 2003,
      "Ġmeant": 2004,
      "Ġentrance": 2005,
      "Ġwoman": 2006,
      "ident": 2007,
      "Ġinform": 2008,
      "Ġready": 2009,
      "Ġemer": 2010,
      "Ġnumber": 2011,
      "All": 2012,
      "bus": 2013,
      "lin": 2014,
      "Ġfif": 2015,
      "Ġbrother": 2016,
      "ĠInvisibility": 2017,
      "Ġenormous": 2018,
      "bably": 2019,
      "ser": 2020,
      "Ġhop": 2021,
      "Ġbar": 2022,
      "ask": 2023,
      "Ġthr": 2024,
      "ĠWood": 2025,
      "Ġknown": 2026,
      "ogn": 2027,
      "Ġherself": 2028,
      "ĠWormtail": 2029,
      "iew": 2030,
      "Ġsword": 2031,
      "Ġwalking": 2032,
      "Ġperhaps": 2033,
      "looking": 2034,
      "inted": 2035,
      "Ġpulling": 2036,
      "Be": 2037,
      "Ġve": 2038,
      "Ġluck": 2039,
      "Ġknows": 2040,
      "Ġcho": 2041,
      "Ġfinally": 2042,
      "kes": 2043,
      "Ġign": 2044,
      "Ġcut": 2045,
      "Ġelf": 2046,
      "ĠCr": 2047,
      "Ġlead": 2048,
      "ield": 2049,
      "ĠProphe": 2050,
      "Ġangry": 2051,
      "This": 2052,
      "Where": 2053,
      "oom": 2054,
      "als": 2055,
      "ations": 2056,
      "Ġsafe": 2057,
      "Ġsun": 2058,
      "Ġthin": 2059,
      "Ġshad": 2060,
      "inking": 2061,
      "teen": 2062,
      "Ġbelow": 2063,
      "Ġrememb": 2064,
      "Ġbroke": 2065,
      "Ġrepeated": 2066,
      "Ġwood": 2067,
      "rely": 2068,
      "Ġinv": 2069,
      "amus": 2070,
      "Ġwands": 2071,
      "Ġtrain": 2072,
      "Ġangrily": 2073,
      "Ġkilled": 2074,
      "Ġcompletely": 2075,
      "Ġer": 2076,
      "Ġfig": 2077,
      "Ġtor": 2078,
      "Ġcir": 2079,
      "Ġpale": 2080,
      "ices": 2081,
      "Ġass": 2082,
      "ection": 2083,
      "unny": 2084,
      "Ġjob": 2085,
      "Ġrecogn": 2086,
      "kab": 2087,
      "zkab": 2088,
      "ĠSh": 2089,
      "Ġhappy": 2090,
      "ĠJames": 2091,
      "Ġbroken": 2092,
      "ĠSeamus": 2093,
      "Ġflying": 2094,
      "Ġtonight": 2095,
      "zkaban": 2096,
      "ub": 2097,
      "nding": 2098,
      "Ġbat": 2099,
      "Ġthro": 2100,
      "rought": 2101,
      "pect": 2102,
      "Ġanyway": 2103,
      "ĠArts": 2104,
      "Ġlistening": 2105,
      "An": 2106,
      "Did": 2107,
      "Ġhang": 2108,
      "aning": 2109,
      "ĠDementors": 2110,
      "ĠPar": 2111,
      "Ġnodded": 2112,
      "Ġsmiling": 2113,
      "Ġtrue": 2114,
      "Ġflat": 2115,
      "Ġclearly": 2116,
      "Ġweek": 2117,
      "AR": 2118,
      "rell": 2119,
      "arrow": 2120,
      "ison": 2121,
      "ĠAzkaban": 2122,
      "Ġsuppose": 2123,
      "Ġlesson": 2124,
      "Ġinstead": 2125,
      "Ġmemory": 2126,
      "Look": 2127,
      "cause": 2128,
      "Ġmention": 2129,
      "Ġegg": 2130,
      "cho": 2131,
      "inky": 2132,
      "ĠNot": 2133,
      "icking": 2134,
      "arently": 2135,
      "Ġheads": 2136,
      "Ġseconds": 2137,
      "ĠAlbus": 2138,
      "ghed": 2139,
      "tly": 2140,
      "ĠAg": 2141,
      "ĠEater": 2142,
      "inner": 2143,
      "claw": 2144,
      "Ġvisit": 2145,
      "avenclaw": 2146,
      "Professor": 2147,
      "OR": 2148,
      "isk": 2149,
      "Ġreason": 2150,
      "aled": 2151,
      "Ġshow": 2152,
      "Ġbackward": 2153,
      "Ġcons": 2154,
      "ĠEr": 2155,
      "Ġtrees": 2156,
      "ĠSnitch": 2157,
      "ike": 2158,
      "master": 2159,
      "oul": 2160,
      "Ġbarely": 2161,
      "Ġmonth": 2162,
      "ĠProphet": 2163,
      "rim": 2164,
      "Ġmiss": 2165,
      "Ġthrow": 2166,
      "Ġecho": 2167,
      "Ġ--": 2168,
      "ĠMagical": 2169,
      "Ġz": 2170,
      "Ġstret": 2171,
      "ĠSever": 2172,
      "ĠRavenclaw": 2173,
      "ains": 2174,
      "ĠWizard": 2175,
      "Ġdragon": 2176,
      "Ġought": 2177,
      "ider": 2178,
      "Ġgle": 2179,
      "Ġreckon": 2180,
      "Ġforced": 2181,
      "Ġdisc": 2182,
      "Ġball": 2183,
      "Ġled": 2184,
      "ĠWell": 2185,
      "Ġlearn": 2186,
      "Ġimag": 2187,
      "Ġhorrible": 2188,
      "Ġdoub": 2189,
      "Ġir": 2190,
      "Ġill": 2191,
      "Ġtears": 2192,
      "Ġahead": 2193,
      "iness": 2194,
      "Ġpair": 2195,
      "Ġstory": 2196,
      "unch": 2197,
      "Ġscr": 2198,
      "Ex": 2199,
      "itted": 2200,
      "Ġmir": 2201,
      "Ġshot": 2202,
      "Ġstrange": 2203,
      "Ġgiving": 2204,
      "Ġsky": 2205,
      "Ġsnapped": 2206,
      "Ġdifferent": 2207,
      "orted": 2208,
      "ldron": 2209,
      "Ġquill": 2210,
      "Ġhappen": 2211,
      "Ġstepped": 2212,
      "Ġhours": 2213,
      "isted": 2214,
      "Ġmiddle": 2215,
      "Ġlake": 2216,
      "ancing": 2217,
      "ĠMuggles": 2218,
      "Ġbox": 2219,
      "orrow": 2220,
      "Ġdorm": 2221,
      "Ġanx": 2222,
      "Ġfear": 2223,
      "Ġblue": 2224,
      "eeves": 2225,
      "Ġimportant": 2226,
      "Ġwing": 2227,
      "Ġhidden": 2228,
      "Ġbig": 2229,
      "ates": 2230,
      "ition": 2231,
      "Ġthird": 2232,
      "imm": 2233,
      "Ġblank": 2234,
      "shanks": 2235,
      "...": 2236,
      "Ġsing": 2237,
      "aroff": 2238,
      "atur": 2239,
      "ookshanks": 2240,
      "aped": 2241,
      "arkaroff": 2242,
      "aid": 2243,
      "ial": 2244,
      "ta": 2245,
      "wh": 2246,
      "Ġfre": 2247,
      "Ġcabin": 2248,
      "omf": 2249,
      "Ġwhom": 2250,
      "Ġtruth": 2251,
      "Ġsummer": 2252,
      "St": 2253,
      "rit": 2254,
      "ita": 2255,
      "Ġlate": 2256,
      "Ġeag": 2257,
      "ĠMar": 2258,
      "Ġrat": 2259,
      "Ġdormit": 2260,
      "Dumbledore": 2261,
      "ON": 2262,
      "by": 2263,
      "Ġhum": 2264,
      "Ġbrought": 2265,
      "Ġcop": 2266,
      "Ġpushed": 2267,
      "Ġgri": 2268,
      "ĠPat": 2269,
      "ĠEx": 2270,
      "Ġpoints": 2271,
      "uffle": 2272,
      "Ġdeser": 2273,
      "lessly": 2274,
      "Ġstrugg": 2275,
      "ĠOrder": 2276,
      "ĠAgain": 2277,
      "Ġduring": 2278,
      "Ġform": 2279,
      "ĠPomf": 2280,
      "Ġchamp": 2281,
      "Ġyourself": 2282,
      "Ġtrans": 2283,
      "Ġsilent": 2284,
      "Ġexcited": 2285,
      "Ġdangerous": 2286,
      "ĠPomfrey": 2287,
      "Let": 2288,
      "Ġstom": 2289,
      "vering": 2290,
      "Ġshrie": 2291,
      "Ġroared": 2292,
      "ular": 2293,
      "Ġsounded": 2294,
      "ixed": 2295,
      "ape": 2296,
      "Ġadd": 2297,
      "Ġfright": 2298,
      "ane": 2299,
      "bbing": 2300,
      "Ġpretend": 2301,
      "Ġbottle": 2302,
      "Ġdesper": 2303,
      "Ġhardly": 2304,
      "Ġwonder": 2305,
      "Ġadm": 2306,
      "Ġpossible": 2307,
      "Ġcarrying": 2308,
      "Ah": 2309,
      "Ġfine": 2310,
      "Ġcried": 2311,
      "Ġcalm": 2312,
      "Ġmaster": 2313,
      "Ġrose": 2314,
      "thur": 2315,
      "Ġprobably": 2316,
      "Ġlaughed": 2317,
      "Ġedge": 2318,
      "ĠCrookshanks": 2319,
      "gy": 2320,
      "ipp": 2321,
      "Ġsister": 2322,
      "nded": 2323,
      "Ġnews": 2324,
      "Ġfaces": 2325,
      "Ġstreet": 2326,
      "sme": 2327,
      "Ġhast": 2328,
      "Ġfro": 2329,
      "icult": 2330,
      "Ġexpected": 2331,
      "Ġobject": 2332,
      "Ġglo": 2333,
      "Ġnor": 2334,
      "rol": 2335,
      "ĠPeeves": 2336,
      "Ġsugg": 2337,
      "Ġworse": 2338,
      "ĠDef": 2339,
      "Ġlaughter": 2340,
      "Ġobv": 2341,
      "smeade": 2342,
      "Of": 2343,
      "Ġcol": 2344,
      "ĠApp": 2345,
      "pell": 2346,
      "cked": 2347,
      "Ġcloser": 2348,
      "medi": 2349,
      "Are": 2350,
      "Hermione": 2351,
      "puff": 2352,
      "Ġcovered": 2353,
      "Ġdrew": 2354,
      "Ġpicked": 2355,
      "geour": 2356,
      "ĠFr": 2357,
      "Ġjumped": 2358,
      "ĠHogsmeade": 2359,
      "Ġdifficult": 2360,
      "Ġcouple": 2361,
      "ucius": 2362,
      "ufflepuff": 2363,
      "uge": 2364,
      "Ġtree": 2365,
      "Ġhung": 2366,
      "Ġgrou": 2367,
      "eth": 2368,
      "ĠRita": 2369,
      "ters": 2370,
      "Ġwants": 2371,
      "Ġpleased": 2372,
      "ĠScrim": 2373,
      "Ġheavy": 2374,
      "Ġ\"": 2375,
      "Ġtem": 2376,
      "Ġfunny": 2377,
      "ĠHufflepuff": 2378,
      "Ġpun": 2379,
      "Ġnorm": 2380,
      "aybe": 2381,
      "Ġaren": 2382,
      "ĠKarkaroff": 2383,
      "ĠScrimgeour": 2384,
      "fast": 2385,
      "Ġwild": 2386,
      "Ġbow": 2387,
      "ament": 2388,
      "ĠJust": 2389,
      "Ġforest": 2390,
      "Ġindeed": 2391,
      "Ġsimply": 2392,
      "bolt": 2393,
      "reme": 2394,
      "ital": 2395,
      "eter": 2396,
      "Ġnote": 2397,
      "ĠAfter": 2398,
      "ĠWhy": 2399,
      "Ġposit": 2400,
      "host": 2401,
      "Ġparticul": 2402,
      "Ġgoblin": 2403,
      "Ġthroat": 2404,
      "Is": 2405,
      "apped": 2406,
      "kay": 2407,
      "Ġtight": 2408,
      "Ġtra": 2409,
      "Ġdinner": 2410,
      "Ġyeah": 2411,
      "aching": 2412,
      "ushing": 2413,
      "ĠTr": 2414,
      "ĠDigg": 2415,
      "geon": 2416,
      "Ġmerely": 2417,
      "Ġsubject": 2418,
      "Ġstomach": 2419,
      "ories": 2420,
      "Ġnarrow": 2421,
      "ĠSome": 2422,
      "ĠLucius": 2423,
      "Ġmyself": 2424,
      "Ġimmedi": 2425,
      "Ġperfect": 2426,
      "Ġwondered": 2427,
      "Ġstarting": 2428,
      "Ġgirls": 2429,
      "Ġavo": 2430,
      "Ġph": 2431,
      "Ġghost": 2432,
      "Ġfrown": 2433,
      "Ġord": 2434,
      "ĠâĢ¦âĢĿ": 2435,
      "Ġgrow": 2436,
      "blood": 2437,
      "Ġapart": 2438,
      "Ron": 2439,
      "Ġbas": 2440,
      "Ġmark": 2441,
      "amb": 2442,
      "ife": 2443,
      "orth": 2444,
      "ourn": 2445,
      "Ġslid": 2446,
      "Ġappear": 2447,
      "Ġscreamed": 2448,
      "Ġgasped": 2449,
      "aut": 2450,
      "wick": 2451,
      "Ġbath": 2452,
      "Ġmess": 2453,
      "any": 2454,
      "oming": 2455,
      "Ġaside": 2456,
      "ĠSke": 2457,
      "riph": 2458,
      "amber": 2459,
      "Ġshr": 2460,
      "Ġalive": 2461,
      "ept": 2462,
      "Ġprom": 2463,
      "Ġbroomstick": 2464,
      "Ġguard": 2465,
      "riphook": 2466,
      "aily": 2467,
      "ones": 2468,
      "Ġfer": 2469,
      "Ġfav": 2470,
      "oth": 2471,
      "Ġann": 2472,
      "avender": 2473,
      "Ġbecome": 2474,
      "Ġlove": 2475,
      "Ġremained": 2476,
      "Ġwalk": 2477,
      "Ġneeded": 2478,
      "Ġjoined": 2479,
      "Ġcarefully": 2480,
      "Ġfamil": 2481,
      "Ġactually": 2482,
      "Ġlaughing": 2483,
      "Ġattemp": 2484,
      "bs": 2485,
      "iar": 2486,
      "itwick": 2487,
      "oring": 2488,
      "Ġdad": 2489,
      "Ġdare": 2490,
      "Ġleapt": 2491,
      "Ġchild": 2492,
      "Ġworry": 2493,
      "ments": 2494,
      "Ġhole": 2495,
      "ungus": 2496,
      "ĠGranger": 2497,
      "Ġbreakfast": 2498,
      "Ġremembered": 2499,
      "Right": 2500,
      "eep": 2501,
      "how": 2502,
      "Ġtall": 2503,
      "Ġbent": 2504,
      "Ġnice": 2505,
      "ĠWinky": 2506,
      "Ġweren": 2507,
      "ĠâĢĵâĢľ": 2508,
      "Ġsmiled": 2509,
      "Ġsomebody": 2510,
      "ĠPotions": 2511,
      "Ġtea": 2512,
      "Ġteeth": 2513,
      "Ġtremb": 2514,
      "Ġcatch": 2515,
      "Ġdirection": 2516,
      "Ġpicture": 2517,
      "Just": 2518,
      "ning": 2519,
      "Ġhol": 2520,
      "Ġhuge": 2521,
      "Ġdem": 2522,
      "ays": 2523,
      "ammed": 2524,
      "anding": 2525,
      "Ġabs": 2526,
      "aused": 2527,
      "Ġterrible": 2528,
      "ĠSec": 2529,
      "ĠFlitwick": 2530,
      "rode": 2531,
      "LE": 2532,
      "joy": 2533,
      "zen": 2534,
      "Ġdog": 2535,
      "blet": 2536,
      "Ġsomewhere": 2537,
      "Ġknees": 2538,
      "Ġapparently": 2539,
      "Ġfirm": 2540,
      "undungus": 2541,
      "Ġadv": 2542,
      "Ġextreme": 2543,
      "Ġteachers": 2544,
      "ges": 2545,
      "Ġtightly": 2546,
      "ote": 2547,
      "Ġsear": 2548,
      "Ġallowed": 2549,
      "ĠLavender": 2550,
      "Ġview": 2551,
      "Ġpol": 2552,
      "Ġstrong": 2553,
      "Ġdrink": 2554,
      "Ġrealized": 2555,
      "Ġsurprise": 2556,
      "Ġsharply": 2557,
      "Ġclutching": 2558,
      "ĠAgainst": 2559,
      "ler": 2560,
      "Ġcre": 2561,
      "ĠTo": 2562,
      "ĠDaily": 2563,
      "Ġforget": 2564,
      "ĠGriphook": 2565,
      "Ġslipped": 2566,
      "Ġtwenty": 2567,
      "Ġlessons": 2568,
      "Ġsurprised": 2569,
      "Ġoppos": 2570,
      "Ġclimbed": 2571,
      "ĠSkeeter": 2572,
      "col": 2573,
      "yond": 2574,
      "Ġtip": 2575,
      "Ġsense": 2576,
      "Ġwish": 2577,
      "Ġpaper": 2578,
      "Ġbeyond": 2579,
      "urse": 2580,
      "Ġsol": 2581,
      "Ġproper": 2582,
      "Ġbottom": 2583,
      "Ġboys": 2584,
      "abbers": 2585,
      "Ġinformation": 2586,
      "kin": 2587,
      "vati": 2588,
      "Ġaf": 2589,
      "arl": 2590,
      "Ġtoday": 2591,
      "ashing": 2592,
      "Ġpink": 2593,
      "ute": 2594,
      "Ġworking": 2595,
      "early": 2596,
      "itely": 2597,
      "Ġhasn": 2598,
      "Ġclassroom": 2599,
      "Ġdecided": 2600,
      "ĠDiggory": 2601,
      "face": 2602,
      "âĢĵ": 2603,
      "Ġdun": 2604,
      "Ġpitch": 2605,
      "Ġnone": 2606,
      "Ġstaff": 2607,
      "ical": 2608,
      "Ġuna": 2609,
      "ague": 2610,
      "Ġshop": 2611,
      "Ġliving": 2612,
      "elve": 2613,
      "Ġattention": 2614,
      "Ġcrack": 2615,
      "Ġforehead": 2616,
      "Ġeager": 2617,
      "AT": 2618,
      "een": 2619,
      "Ġdust": 2620,
      "Ġpan": 2621,
      "imp": 2622,
      "Ġitself": 2623,
      "agg": 2624,
      "Ġupstairs": 2625,
      "raid": 2626,
      "Ġseeing": 2627,
      "Ġsnow": 2628,
      "Ġsurround": 2629,
      "beak": 2630,
      "Ġclosely": 2631,
      "Ġextra": 2632,
      "spital": 2633,
      "Ġpiece": 2634,
      "Ġforgotten": 2635,
      "Ġtail": 2636,
      "inx": 2637,
      "Ġhot": 2638,
      "Ġfilled": 2639,
      "Ġdest": 2640,
      "ĠMundungus": 2641,
      "ĠDis": 2642,
      "Ġconvers": 2643,
      "Ġworried": 2644,
      "uckbeak": 2645,
      "Ġdeterm": 2646,
      "elf": 2647,
      "Ġhiding": 2648,
      "Ġtow": 2649,
      "asure": 2650,
      "irty": 2651,
      "ĠCup": 2652,
      "ude": 2653,
      "rows": 2654,
      "Ġspeaking": 2655,
      "Ġfollowing": 2656,
      "Ġcount": 2657,
      "Ġopposite": 2658,
      "ton": 2659,
      "Ġweak": 2660,
      "ĠDad": 2661,
      "steps": 2662,
      "ander": 2663,
      "Ġenjoy": 2664,
      "Ġhappily": 2665,
      "Ġsecret": 2666,
      "Ġhospital": 2667,
      "Ġlisten": 2668,
      "Ġattempt": 2669,
      "Ġpresent": 2670,
      "ĠParvati": 2671,
      "Ġsingle": 2672,
      "Ġafraid": 2673,
      "Sh": 2674,
      "Ġfain": 2675,
      "Ġcry": 2676,
      "Ġforce": 2677,
      "gelin": 2678,
      "Ġdeal": 2679,
      "Ġconv": 2680,
      "ĠScabbers": 2681,
      "ĠErn": 2682,
      "Ġmirror": 2683,
      "zing": 2684,
      "Ġ1": 2685,
      "irrell": 2686,
      "aded": 2687,
      "Ġrepl": 2688,
      "Ġmeans": 2689,
      "Ġimpati": 2690,
      "Ġfuriously": 2691,
      "Ġextremely": 2692,
      "Eye": 2693,
      "ha": 2694,
      "ony": 2695,
      "Ġbang": 2696,
      "Ġbound": 2697,
      "its": 2698,
      "Ġdie": 2699,
      "Ġmass": 2700,
      "Ġpack": 2701,
      "ĠBuckbeak": 2702,
      "Ġpost": 2703,
      "Ġswung": 2704,
      "Ġdiscus": 2705,
      "Ġwondering": 2706,
      "Ġweeks": 2707,
      "Ġdisappeared": 2708,
      "back": 2709,
      "ĠTom": 2710,
      "Ġnotice": 2711,
      "ĠFore": 2712,
      "Ġlibr": 2713,
      "Ġtrust": 2714,
      "Ġarg": 2715,
      "Ġgrinning": 2716,
      "Ġdisg": 2717,
      "Ġbring": 2718,
      "Ġkeeping": 2719,
      "ĠSlytherins": 2720,
      "Ġcoun": 2721,
      "Ġpurple": 2722,
      "Ġimmediately": 2723,
      "OO": 2724,
      "blem": 2725,
      "Ġplaced": 2726,
      "Ġsmell": 2727,
      "Ġvoices": 2728,
      "Ġeyeb": 2729,
      "ĠAngelin": 2730,
      "Ġfinger": 2731,
      "Ġpossess": 2732,
      "Ġgazing": 2733,
      "Ġholid": 2734,
      "ĠForest": 2735,
      "Can": 2736,
      "Very": 2737,
      "come": 2738,
      "night": 2739,
      "hered": 2740,
      "Ġfood": 2741,
      "Ġhesit": 2742,
      "Ġstrode": 2743,
      "tern": 2744,
      "Ġroll": 2745,
      "Ġspir": 2746,
      "ĠWeasleys": 2747,
      "ĠQuirrell": 2748,
      "inting": 2749,
      "Ġwarm": 2750,
      "Ġnast": 2751,
      "acing": 2752,
      "aces": 2753,
      "Ġrid": 2754,
      "Ġwhatever": 2755,
      "Ġchange": 2756,
      "Ġpassage": 2757,
      "ĠBlud": 2758,
      "Ġfootsteps": 2759,
      "Ġhomework": 2760,
      "Ġtouch": 2761,
      "Ġcirc": 2762,
      "Ġdormitory": 2763,
      "Ġhastily": 2764,
      "ker": 2765,
      "that": 2766,
      "tig": 2767,
      "Ġsick": 2768,
      "arled": 2769,
      "leep": 2770,
      "Ġstep": 2771,
      "Ġur": 2772,
      "orting": 2773,
      "ables": 2774,
      "unno": 2775,
      "Ġjoin": 2776,
      "Ġwaited": 2777,
      "ĠArthur": 2778,
      "Ġmarble": 2779,
      "Ġpowerful": 2780,
      "Ġknocked": 2781,
      "Hagrid": 2782,
      "af": 2783,
      "rtle": 2784,
      "Ġfixed": 2785,
      "llent": 2786,
      "Ġpri": 2787,
      "ads": 2788,
      "Ġsend": 2789,
      "eling": 2790,
      "ogra": 2791,
      "Ġterrified": 2792,
      "Ġcauldron": 2793,
      "ĠFirebolt": 2794,
      "Ġbellowed": 2795,
      "Ġdoubt": 2796,
      "Ġlibrary": 2797,
      "ĠAngelina": 2798,
      "tigrew": 2799,
      "Ġterm": 2800,
      "Ġble": 2801,
      "itched": 2802,
      "Ġlanded": 2803,
      "Ġpage": 2804,
      "Ġele": 2805,
      "cellent": 2806,
      "ĠCurse": 2807,
      "Ġlive": 2808,
      "Ġscared": 2809,
      "Ġattacked": 2810,
      "Ġbedroom": 2811,
      "ĠSeverus": 2812,
      "iant": 2813,
      "ring": 2814,
      "tled": 2815,
      "ury": 2816,
      "lliv": 2817,
      "Ġpath": 2818,
      "Ġgrabb": 2819,
      "ĠLily": 2820,
      "Ġrolled": 2821,
      "Ġtwelve": 2822,
      "Ġremind": 2823,
      "ĠYOU": 2824,
      "Ġfigure": 2825,
      "Ġgroup": 2826,
      "In": 2827,
      "inct": 2828,
      "Ġje": 2829,
      "Ġusually": 2830,
      "Ġcannot": 2831,
      "ĠOlliv": 2832,
      "inned": 2833,
      "Ġafterno": 2834,
      "Ġprophe": 2835,
      "Ġnervously": 2836,
      "ournament": 2837,
      "bot": 2838,
      "clock": 2839,
      "ived": 2840,
      "uing": 2841,
      "Ġtroll": 2842,
      "Ġdress": 2843,
      "Ġmag": 2844,
      "Ġgard": 2845,
      "omp": 2846,
      "vel": 2847,
      "ĠTwo": 2848,
      "oney": 2849,
      "Ġgrim": 2850,
      "Ġenc": 2851,
      "Ġproblem": 2852,
      "ĠPettigrew": 2853,
      "Ġminute": 2854,
      "Ġsoftly": 2855,
      "Ġnearer": 2856,
      "Ġfirmly": 2857,
      "fer": 2858,
      "pic": 2859,
      "Ġtask": 2860,
      "atter": 2861,
      "ides": 2862,
      "Ġline": 2863,
      "Ġbeard": 2864,
      "ĠTower": 2865,
      "Ġsevent": 2866,
      "Ġdelight": 2867,
      "Ġglad": 2868,
      "Ġsne": 2869,
      "Ġfollow": 2870,
      "Ġreading": 2871,
      "Ġowls": 2872,
      "Ġplaying": 2873,
      "Ġmeeting": 2874,
      "ĠAppar": 2875,
      "Ġphot": 2876,
      "reed": 2877,
      "atie": 2878,
      "Ġincl": 2879,
      "Ġeart": 2880,
      "aked": 2881,
      "Ġrock": 2882,
      "Ġlocket": 2883,
      "ĠMyrtle": 2884,
      "Ġbathroom": 2885,
      "ĠOllivander": 2886,
      "org": 2887,
      "eng": 2888,
      "Ġshowed": 2889,
      "ĠNick": 2890,
      "Ġspent": 2891,
      "Ġthinks": 2892,
      "Ġprefect": 2893,
      "ugged": 2894,
      "Ġwaving": 2895,
      "Ġamong": 2896,
      "ibly": 2897,
      "Ġforwards": 2898,
      "arlie": 2899,
      "Ġafternoon": 2900,
      "ST": 2901,
      "Ġhon": 2902,
      "arc": 2903,
      "ested": 2904,
      "Ġgro": 2905,
      "Ġalarm": 2906,
      "ĠNor": 2907,
      "ĠKatie": 2908,
      "Ġhalfway": 2909,
      "Ġexcit": 2910,
      "Ġnormal": 2911,
      "Ġparticularly": 2912,
      "Ġprophecy": 2913,
      "fig": 2914,
      "ian": 2915,
      "arily": 2916,
      "Ġfist": 2917,
      "enix": 2918,
      "Ġperm": 2919,
      "Ġgen": 2920,
      "Ġasleep": 2921,
      "ĠBur": 2922,
      "Ġdep": 2923,
      "Ġworked": 2924,
      "Ġglit": 2925,
      "hoenix": 2926,
      "olly": 2927,
      "Ġsideways": 2928,
      "Ġcorridors": 2929,
      "Ġdefin": 2930,
      "Ġconversation": 2931,
      "Ġdetermined": 2932,
      "more": 2933,
      "tic": 2934,
      "ĠHouse": 2935,
      "Ġmap": 2936,
      "Ġpow": 2937,
      "otion": 2938,
      "irth": 2939,
      "ĠTw": 2940,
      "Ġchanged": 2941,
      "though": 2942,
      "Ġcurse": 2943,
      "Ġfallen": 2944,
      "Ġdiary": 2945,
      "Ġspells": 2946,
      "Ġshadow": 2947,
      "ĠPatron": 2948,
      "Ġdeserted": 2949,
      "Get": 2950,
      "du": 2951,
      "hil": 2952,
      "Ġoh": 2953,
      "Ġcage": 2954,
      "Ġeat": 2955,
      "ĠMiss": 2956,
      "ĠWhere": 2957,
      "ĠFang": 2958,
      "Ġtrick": 2959,
      "Ġbrain": 2960,
      "Ġshoulders": 2961,
      "Ġheavily": 2962,
      "Ġexplain": 2963,
      "Ġapproached": 2964,
      "ĠPrime": 2965,
      "Ġcopy": 2966,
      "RE": 2967,
      "Ġsy": 2968,
      "otts": 2969,
      "Ġreve": 2970,
      "Ġjump": 2971,
      "ĠLe": 2972,
      "Ġgrass": 2973,
      "ollow": 2974,
      "Ġcheer": 2975,
      "Ġfalling": 2976,
      "Ġsuspic": 2977,
      "OT": 2978,
      "nce": 2979,
      "well": 2980,
      "wizard": 2981,
      "Ġess": 2982,
      "Ġtrave": 2983,
      "Ġtom": 2984,
      "Ġdri": 2985,
      "Ġgrave": 2986,
      "ann": 2987,
      "lease": 2988,
      "Ġbeaming": 2989,
      "Ġstat": 2990,
      "ooped": 2991,
      "ĠMax": 2992,
      "ĠSee": 2993,
      "Ġseven": 2994,
      "Ġsho": 2995,
      "ĠWh": 2996,
      "ĠGo": 2997,
      "Ġleaned": 2998,
      "isten": 2999,
      "ieve": 3000,
      "Ġsmoot": 3001,
      "Ġpret": 3002,
      "Ġsurface": 3003,
      "Ġcurtain": 3004,
      "ĠMadame": 3005,
      "Ġfurther": 3006,
      "Ġbrightly": 3007,
      "Ġmissed": 3008,
      "centr": 3009,
      "Ġcrossed": 3010,
      "Ġcertainly": 3011,
      "Ġthrowing": 3012,
      "Ġgarden": 3013,
      "ĠMaxime": 3014,
      "set": 3015,
      "Ġaff": 3016,
      "rets": 3017,
      "idly": 3018,
      "Ġyer": 3019,
      "Ġbew": 3020,
      "Ġemb": 3021,
      "Ġrece": 3022,
      "ĠDep": 3023,
      "ĠCharlie": 3024,
      "Ġhurrying": 3025,
      "Ġscarlet": 3026,
      "Ġfighting": 3027,
      "Ġhoping": 3028,
      "Ġstretched": 3029,
      "Ġfrowning": 3030,
      "Ġtrembling": 3031,
      "Ġearth": 3032,
      "ĠPatronus": 3033,
      "bed": 3034,
      "cious": 3035,
      "mo": 3036,
      "Ġfool": 3037,
      "Ġfield": 3038,
      "Ġcand": 3039,
      "Ġpu": 3040,
      "ceed": 3041,
      "Ġrow": 3042,
      "ction": 3043,
      "Ġspark": 3044,
      "Ġusing": 3045,
      "Ġunless": 3046,
      "Ġcompl": 3047,
      "Ġsqueak": 3048,
      "Ġhanging": 3049,
      "Ġnasty": 3050,
      "EN": 3051,
      "Maybe": 3052,
      "ls": 3053,
      "Ġbirth": 3054,
      "Ġoften": 3055,
      "Ġones": 3056,
      "cks": 3057,
      "Ġvill": 3058,
      "Ġcloud": 3059,
      "bbed": 3060,
      "ĠEven": 3061,
      "Ġappl": 3062,
      "Ġanger": 3063,
      "Ġmurm": 3064,
      "Ġmonths": 3065,
      "ĠTrans": 3066,
      "Ġeagerly": 3067,
      "ĠErnie": 3068,
      "Ġeyebrows": 3069,
      "Bl": 3070,
      "lace": 3071,
      "ope": 3072,
      "ĠX": 3073,
      "ĠZ": 3074,
      "Ġtables": 3075,
      "inary": 3076,
      "Ġsank": 3077,
      "Ġwin": 3078,
      "attered": 3079,
      "Ġdra": 3080,
      "Ġink": 3081,
      "Ġinvis": 3082,
      "ots": 3083,
      "illy": 3084,
      "Ġpoor": 3085,
      "Ġskin": 3086,
      "Ġbusiness": 3087,
      "Ġfacing": 3088,
      "Ġnervous": 3089,
      "Ġperfectly": 3090,
      "bottom": 3091,
      "Re": 3092,
      "my": 3093,
      "under": 3094,
      "Ġworth": 3095,
      "ĠIm": 3096,
      "aling": 3097,
      "umin": 3098,
      "ĠGrey": 3099,
      "Ġliked": 3100,
      "Ġgray": 3101,
      "ometimes": 3102,
      "Ġputting": 3103,
      "ney": 3104,
      "Ġdistant": 3105,
      "Ġslee": 3106,
      "Ġsplit": 3107,
      "Ġcenta": 3108,
      "Ġeffort": 3109,
      "Ġpressed": 3110,
      "Ġimpatiently": 3111,
      "Ġsoul": 3112,
      "Ġcro": 3113,
      "asant": 3114,
      "Ġdread": 3115,
      "Ġlunch": 3116,
      "Ġsave": 3117,
      "ĠWho": 3118,
      "Ġrain": 3119,
      "Ġconcentr": 3120,
      "Ġhanded": 3121,
      "Ġseems": 3122,
      "Ġshouldn": 3123,
      "Ġwaved": 3124,
      "Ġsnarled": 3125,
      "Ġbusy": 3126,
      "Ġevid": 3127,
      "Ġnearest": 3128,
      "Ġzoom": 3129,
      "Ġirrit": 3130,
      "ograph": 3131,
      "ĠDepartment": 3132,
      "ĠGreyback": 3133,
      "oss": 3134,
      "Ġhig": 3135,
      "Ġinj": 3136,
      "Ġinches": 3137,
      "Ġgame": 3138,
      "ances": 3139,
      "Ġearly": 3140,
      "ĠMum": 3141,
      "illing": 3142,
      "Ġshowing": 3143,
      "ĠCorn": 3144,
      "ĠLong": 3145,
      "Ġsuff": 3146,
      "Ġperform": 3147,
      "Ġmuttering": 3148,
      "Ġexplo": 3149,
      "Ġcupboard": 3150,
      "Ġemerged": 3151,
      "Ġfifty": 3152,
      "Ġunable": 3153,
      "Ġtomorrow": 3154,
      "Ġinvisible": 3155,
      "Your": 3156,
      "Ġokay": 3157,
      "ott": 3158,
      "ĠSpell": 3159,
      "ĠDid": 3160,
      "ĠLee": 3161,
      "uding": 3162,
      "anting": 3163,
      "Ġmoon": 3164,
      "Ġheadmaster": 3165,
      "ingsley": 3166,
      "Ġquestions": 3167,
      "Ġechoed": 3168,
      "Ġpretty": 3169,
      "AN": 3170,
      "ected": 3171,
      "Ġ?âĢĿ": 3172,
      "Ġfun": 3173,
      "Ġfil": 3174,
      "isf": 3175,
      "Ġasking": 3176,
      "Ġwitches": 3177,
      "alle": 3178,
      "Ġjer": 3179,
      "Ġlips": 3180,
      "Ġune": 3181,
      "izing": 3182,
      "Ġthoughts": 3183,
      "Ġspeed": 3184,
      "Ġwhisper": 3185,
      "Ġmaybe": 3186,
      "Ġthrown": 3187,
      "Ġshrieked": 3188,
      "Ġfrightened": 3189,
      "Ġobviously": 3190,
      "Ġgrowled": 3191,
      "Mr": 3192,
      "Pot": 3193,
      "fin": 3194,
      "val": 3195,
      "zed": 3196,
      "Ġhide": 3197,
      "ĠSpr": 3198,
      "ĠDel": 3199,
      "Ġneither": 3200,
      "Ġgoblet": 3201,
      "ants": 3202,
      "Ġcharm": 3203,
      "Ġslight": 3204,
      "ĠPotion": 3205,
      "Ġappre": 3206,
      "Ġspect": 3207,
      "ĠThree": 3208,
      "Ġpassing": 3209,
      "Ġscreaming": 3210,
      "ĠOnce": 3211,
      "Ġspotted": 3212,
      "Ġdrawing": 3213,
      "Ġpractice": 3214,
      "Ġoccas": 3215,
      "ĠWizarding": 3216,
      "Ġhesitated": 3217,
      "cern": 3218,
      "oken": 3219,
      "Ġhissed": 3220,
      "velo": 3221,
      "rog": 3222,
      "ified": 3223,
      "ongue": 3224,
      "ighed": 3225,
      "ĠOh": 3226,
      "thy": 3227,
      "Ġprep": 3228,
      "Ġmoments": 3229,
      "ucked": 3230,
      "Ġposition": 3231,
      "Ġgrabbed": 3232,
      "ĠXen": 3233,
      "yway": 3234,
      "Ġsens": 3235,
      "Ġward": 3236,
      "Ġmen": 3237,
      "Ġpay": 3238,
      "Ġstuck": 3239,
      "Ġund": 3240,
      "ĠRem": 3241,
      "ophil": 3242,
      "Ġtwice": 3243,
      "Ġflames": 3244,
      "Ġcontrol": 3245,
      "apping": 3246,
      "Ġbadly": 3247,
      "Ġguess": 3248,
      "ING": 3249,
      "ophilius": 3250,
      "As": 3251,
      "ias": 3252,
      "ior": 3253,
      "Ġdementors": 3254,
      "Ġmus": 3255,
      "roy": 3256,
      "ĠAur": 3257,
      "els": 3258,
      "Ġspread": 3259,
      "Ġclot": 3260,
      "Ġench": 3261,
      "ĠKingsley": 3262,
      "unned": 3263,
      "Ġfault": 3264,
      "Because": 3265,
      "Ġhuman": 3266,
      "Ġdungeon": 3267,
      "ĠSprout": 3268,
      "Ġtone": 3269,
      "Ġwake": 3270,
      "ĠâĢĻ": 3271,
      "Ġgra": 3272,
      "ĠMark": 3273,
      "ĠPe": 3274,
      "ĠGalle": 3275,
      "ĠOF": 3276,
      "Ġprev": 3277,
      "Ġentire": 3278,
      "ilda": 3279,
      "ĠStone": 3280,
      "Ġcarried": 3281,
      "Ġletters": 3282,
      "Ġprotect": 3283,
      "Dobby": 3284,
      "Ġwriting": 3285,
      "Ġeasy": 3286,
      "ĠTransfig": 3287,
      "ĠLongbottom": 3288,
      "Go": 3289,
      "arg": 3290,
      "Ġcour": 3291,
      "Ġthreat": 3292,
      "Ġreach": 3293,
      "pected": 3294,
      "ĠWand": 3295,
      "Ġupward": 3296,
      "quire": 3297,
      "ĠLove": 3298,
      "Ġdel": 3299,
      "ulus": 3300,
      "Ġworst": 3301,
      "Ġplat": 3302,
      "ĠQuaff": 3303,
      "Ġunderstood": 3304,
      "Ġdisappo": 3305,
      "Ġrefle": 3306,
      "Ġinterested": 3307,
      "ĠHorcruxes": 3308,
      "Ġsharp": 3309,
      "ĠCharms": 3310,
      "Ġdefinitely": 3311,
      "Ġbirthday": 3312,
      "ĠXenophilius": 3313,
      "io": 3314,
      "ium": 3315,
      "ner": 3316,
      "uice": 3317,
      "Ġfit": 3318,
      "Ġhearing": 3319,
      "utter": 3320,
      "Ġrising": 3321,
      "inked": 3322,
      "Ġdownstairs": 3323,
      "ĠNearly": 3324,
      "Ġunple": 3325,
      "Ġcomfort": 3326,
      "Ġteach": 3327,
      "Ġsnat": 3328,
      "Ġhelped": 3329,
      "Ġsounding": 3330,
      "Ġshouting": 3331,
      "Ġstudent": 3332,
      "Ġyellow": 3333,
      "Ġparty": 3334,
      "Ġhighly": 3335,
      "ĠHowever": 3336,
      "Ġseriously": 3337,
      "Ġseats": 3338,
      "Ġwooden": 3339,
      "Ġgleaming": 3340,
      "Ġfresh": 3341,
      "Ġchampions": 3342,
      "Ġgloom": 3343,
      "Ġannoy": 3344,
      "Ġfamiliar": 3345,
      "ĠBludger": 3346,
      "ait": 3347,
      "born": 3348,
      "Ġ*": 3349,
      "Ġblock": 3350,
      "Ġmer": 3351,
      "Ġlur": 3352,
      "Ġnames": 3353,
      "Ġeh": 3354,
      "ĠTri": 3355,
      "ĠSm": 3356,
      "ĠPh": 3357,
      "Ġshining": 3358,
      "ĠWas": 3359,
      "gered": 3360,
      "Ġexper": 3361,
      "Ġnois": 3362,
      "ĠChamber": 3363,
      "ementor": 3364,
      "Ġcoldly": 3365,
      "racted": 3366,
      "Ġpatch": 3367,
      "rivet": 3368,
      "Ġleading": 3369,
      "aunt": 3370,
      "ding": 3371,
      "Ġbin": 3372,
      "Ġbre": 3373,
      "Ġbird": 3374,
      "Ġbrill": 3375,
      "Ġpile": 3376,
      "Ġpause": 3377,
      "Ġpacked": 3378,
      "lder": 3379,
      "Ġstag": 3380,
      "ĠDrive": 3381,
      "ĠPrivet": 3382,
      "ĠWor": 3383,
      "Ġswept": 3384,
      "Ġgrowing": 3385,
      "Ġremain": 3386,
      "Ġlifted": 3387,
      "Ġsatisf": 3388,
      "Ġcarri": 3389,
      "cial": 3390,
      "Ġcompartment": 3391,
      "Ġinterrup": 3392,
      "Ġobjects": 3393,
      "Ġexcitement": 3394,
      "Ġglittering": 3395,
      "Potter": 3396,
      "When": 3397,
      "cess": 3398,
      "ik": 3399,
      "mm": 3400,
      "what": 3401,
      "Ġlamp": 3402,
      "Ġpure": 3403,
      "Ġnine": 3404,
      "Ġbeat": 3405,
      "roud": 3406,
      "ĠGod": 3407,
      "Ġjinx": 3408,
      "ational": 3409,
      "Ġbitter": 3410,
      "Ġlouder": 3411,
      "Ġlucky": 3412,
      "Ġexcitedly": 3413,
      "Ġholidays": 3414,
      "Ġvillage": 3415,
      "Ġplatform": 3416,
      "ĠQuaffle": 3417,
      "ĠTriwizard": 3418,
      "den": 3419,
      "ues": 3420,
      "Ġsighed": 3421,
      "oned": 3422,
      "Ġhalt": 3423,
      "ĠHarrys": 3424,
      "Ġwhist": 3425,
      "ards": 3426,
      "Ġsoared": 3427,
      "antic": 3428,
      "Ġthank": 3429,
      "aught": 3430,
      "Ġswall": 3431,
      "Ġimm": 3432,
      "ineas": 3433,
      "dding": 3434,
      "Ġdeeply": 3435,
      "Ġfurious": 3436,
      "Ġmiser": 3437,
      "Ġescape": 3438,
      "Ġwarning": 3439,
      "Ġcreatures": 3440,
      "Ġfavor": 3441,
      "Ġsolid": 3442,
      "Ġproperly": 3443,
      "Ġphotograph": 3444,
      "Listen": 3445,
      "wise": 3446,
      "Ġage": 3447,
      "reg": 3448,
      "ingotts": 3449,
      "Ġfat": 3450,
      "Ġdam": 3451,
      "Ġdunno": 3452,
      "urred": 3453,
      "uration": 3454,
      "ĠBy": 3455,
      "Ġ---": 3456,
      "eping": 3457,
      "elius": 3458,
      "Ġthanks": 3459,
      "Ġsomehow": 3460,
      "ausing": 3461,
      "Ġarmch": 3462,
      "rief": 3463,
      "Ġchee": 3464,
      "Ġbelong": 3465,
      "ruct": 3466,
      "Ġbreathing": 3467,
      "Ġhorror": 3468,
      "Ġaware": 3469,
      "forth": 3470,
      "Ġrelief": 3471,
      "Ġburning": 3472,
      "ĠReg": 3473,
      "See": 3474,
      "Sorry": 3475,
      "ses": 3476,
      "itting": 3477,
      "Ġcool": 3478,
      "ency": 3479,
      "Ġsaved": 3480,
      "key": 3481,
      "ĠAber": 3482,
      "âĢ¦.": 3483,
      "Ġanybody": 3484,
      "Ġsped": 3485,
      "ĠOK": 3486,
      "ĠKeep": 3487,
      "Here": 3488,
      "Ġimpression": 3489,
      "Ġsounds": 3490,
      "Ġfirepl": 3491,
      "Ġcareful": 3492,
      "ĠGringotts": 3493,
      "Ġdetention": 3494,
      "Ġshortly": 3495,
      "Ġmurd": 3496,
      "Ġeffect": 3497,
      "Ġlearned": 3498,
      "Ġavoid": 3499,
      "aving": 3500,
      "sion": 3501,
      "year": 3502,
      "Ġtest": 3503,
      "Ġfo": 3504,
      "Ġfold": 3505,
      "Ġlanding": 3506,
      "omfort": 3507,
      "agon": 3508,
      "Ġrang": 3509,
      "Ġlived": 3510,
      "ouses": 3511,
      "Ġknowing": 3512,
      "Ġanymore": 3513,
      "Ġslammed": 3514,
      "Ġsurely": 3515,
      "Ġlift": 3516,
      "Ġsque": 3517,
      "Ġcover": 3518,
      "ivination": 3519,
      "Ġlowered": 3520,
      "ĠHeadless": 3521,
      "colate": 3522,
      "haired": 3523,
      "Ġspectac": 3524,
      "),": 3525,
      "bidden": 3526,
      "pose": 3527,
      "Ġwra": 3528,
      "Ġbab": 3529,
      "Ġpound": 3530,
      "Ġstri": 3531,
      "icing": 3532,
      "irst": 3533,
      "Ġrev": 3534,
      "ilt": 3535,
      "Ġconcern": 3536,
      "Ġheaded": 3537,
      "anging": 3538,
      "Ġeverybody": 3539,
      "ugging": 3540,
      "Ġamaz": 3541,
      "Ġsurv": 3542,
      "ĠStan": 3543,
      "Ġgrip": 3544,
      "Ġcalmly": 3545,
      "Ġdelighted": 3546,
      "Ġhigher": 3547,
      "Ġoccasion": 3548,
      "ĠTransfiguration": 3549,
      "bers": 3550,
      "faced": 3551,
      "gly": 3552,
      "good": 3553,
      "ivering": 3554,
      "Ġserv": 3555,
      "Ġsize": 3556,
      "Ġfier": 3557,
      "Ġeight": 3558,
      "oof": 3559,
      "ĠMor": 3560,
      "ores": 3561,
      "riff": 3562,
      "âĢ¦\"": 3563,
      "unted": 3564,
      "ific": 3565,
      "Ġabrup": 3566,
      "Ġlikely": 3567,
      "Ġunf": 3568,
      "ieved": 3569,
      "Ġsmoke": 3570,
      "action": 3571,
      "ĠGryffindors": 3572,
      "Ġfamous": 3573,
      "Ġresp": 3574,
      "Ġpersu": 3575,
      "Ġdefe": 3576,
      "Ġrubb": 3577,
      "Ġmidair": 3578,
      "Ġdestroy": 3579,
      "Ġsmooth": 3580,
      "Ġclothes": 3581,
      "bly": 3582,
      "zy": 3583,
      "ines": 3584,
      "Ġwings": 3585,
      "Ġmoney": 3586,
      "ĠRoom": 3587,
      "Ġkid": 3588,
      "ĠFat": 3589,
      "Ġgoal": 3590,
      "Ġscene": 3591,
      "Ġtwins": 3592,
      "olved": 3593,
      "Ġhappening": 3594,
      "Ġsilvery": 3595,
      "Ġhurry": 3596,
      "Ġfinal": 3597,
      "issa": 3598,
      "Ġexpelled": 3599,
      "Ġserious": 3600,
      "Ġincred": 3601,
      "Ġwritten": 3602,
      "Ġanxiously": 3603,
      "while": 3604,
      "Ġdesperately": 3605,
      "Ġpanic": 3606,
      "Ġpriv": 3607,
      "arcissa": 3608,
      "On": 3609,
      "VE": 3610,
      "gr": 3611,
      "tor": 3612,
      "Ġhood": 3613,
      "arr": 3614,
      "Ġmine": 3615,
      "Ġlawn": 3616,
      "Ġpill": 3617,
      "Ġinno": 3618,
      "vey": 3619,
      "Ġstick": 3620,
      "aging": 3621,
      "ĠPens": 3622,
      "pper": 3623,
      "ĠTheir": 3624,
      "ils": 3625,
      "Ġring": 3626,
      "ĠCol": 3627,
      "Ġpoison": 3628,
      "Ġanywhere": 3629,
      "Ġspider": 3630,
      "Ġconce": 3631,
      "Ġremo": 3632,
      "Ġcleared": 3633,
      "Ġjoke": 3634,
      "rawp": 3635,
      "ounced": 3636,
      "Ġcreature": 3637,
      "ossible": 3638,
      "ĠCornelius": 3639,
      "ĠPhineas": 3640,
      "ĠAberforth": 3641,
      "ĠPensieve": 3642,
      "Ar": 3643,
      "ipping": 3644,
      "mer": 3645,
      "asted": 3646,
      "Ġmood": 3647,
      "Ġproud": 3648,
      "Ġstream": 3649,
      "Ġweight": 3650,
      "ember": 3651,
      "Ġ...": 3652,
      "ĠâĢĵâĢĿ": 3653,
      "Ġclean": 3654,
      "Ġcorre": 3655,
      "Ġdistance": 3656,
      "Ġdragged": 3657,
      "cuse": 3658,
      "ertainly": 3659,
      "Ġprotection": 3660,
      "ĠNobody": 3661,
      "ĠDisapp": 3662,
      "sc": 3663,
      "Ġmum": 3664,
      "Ġpanted": 3665,
      "Ġinf": 3666,
      "Ġgul": 3667,
      "Ġgigg": 3668,
      "uttered": 3669,
      "ĠMost": 3670,
      "Ġugly": 3671,
      "ĠDivination": 3672,
      "ĠAN": 3673,
      "unity": 3674,
      "Ġfeast": 3675,
      "Ġwhee": 3676,
      "ĠLady": 3677,
      "isting": 3678,
      "Ġagreed": 3679,
      "ogriff": 3680,
      "Ġpeering": 3681,
      "Ġimpossible": 3682,
      "Ġrealised": 3683,
      "Ġbelieved": 3684,
      "Ġmembers": 3685,
      "Ġmovement": 3686,
      "Ġmistake": 3687,
      "Ġdirectly": 3688,
      "Ġnearby": 3689,
      "Ġdouble": 3690,
      "Ġescaped": 3691,
      "Ġmissing": 3692,
      "Ġscrat": 3693,
      "ippogriff": 3694,
      "Ġfierce": 3695,
      "mist": 3696,
      "of": 3697,
      "Ġsometimes": 3698,
      "Ġben": 3699,
      "oose": 3700,
      "irt": 3701,
      "Ġwerewo": 3702,
      "ĠGrawp": 3703,
      "umbling": 3704,
      "Ġva": 3705,
      "udo": 3706,
      "bbly": 3707,
      "Ġflung": 3708,
      "Ġloads": 3709,
      "ĠPerhaps": 3710,
      "Ġrecognized": 3711,
      "Ġsuggested": 3712,
      "ĠDefence": 3713,
      "Ġattempted": 3714,
      "Ġchildren": 3715,
      "orgin": 3716,
      "Ġgener": 3717,
      "Ġwerewolf": 3718,
      "cul": 3719,
      "father": 3720,
      "nze": 3721,
      "Ġfury": 3722,
      "Ġdozen": 3723,
      "unks": 3724,
      "Ġjour": 3725,
      "Ġlie": 3726,
      "udblood": 3727,
      "Ġuncle": 3728,
      "Ġheading": 3729,
      "Ġglance": 3730,
      "Ġglancing": 3731,
      "Ġlocked": 3732,
      "Ġsquare": 3733,
      "ĠEveryone": 3734,
      "Ġcurtains": 3735,
      "ĠDisappar": 3736,
      "RY": 3737,
      "Some": 3738,
      "cto": 3739,
      "tling": 3740,
      "Ġtreat": 3741,
      "ature": 3742,
      "urm": 3743,
      "urity": 3744,
      "terbe": 3745,
      "ĠBorgin": 3746,
      "iles": 3747,
      "ĠCreat": 3748,
      "Ġfee": 3749,
      "Ġexch": 3750,
      "Ġsuit": 3751,
      "ĠNarcissa": 3752,
      "Ġblind": 3753,
      "estly": 3754,
      "Ġplain": 3755,
      "ĠOW": 3756,
      "ĠOg": 3757,
      "athilda": 3758,
      "Ġeverywhere": 3759,
      "Ġbrand": 3760,
      "Ġopening": 3761,
      "Ġharder": 3762,
      "Ġindign": 3763,
      "ĠAlley": 3764,
      "Ġuncomfort": 3765,
      "Ġexplained": 3766,
      "Ġtouched": 3767,
      "Ġgoblins": 3768,
      "Ġanxious": 3769,
      "ĠGalleons": 3770,
      "LL": 3771,
      "hus": 3772,
      "res": 3773,
      "Ġcas": 3774,
      "Ġchat": 3775,
      "Ġdim": 3776,
      "Ġmain": 3777,
      "Ġpou": 3778,
      "Ġpaused": 3779,
      "Ġsad": 3780,
      "Ġstation": 3781,
      "ety": 3782,
      "Ġwel": 3783,
      "rier": 3784,
      "Ġrage": 3785,
      "Ġlevel": 3786,
      "Ġchairs": 3787,
      "elw": 3788,
      "earing": 3789,
      "Ġtrack": 3790,
      "Ġbran": 3791,
      "Ġraising": 3792,
      "ĠGrind": 3793,
      "Ġdrop": 3794,
      "Ġdragons": 3795,
      "Ġmarched": 3796,
      "ĠYour": 3797,
      "Ġaccident": 3798,
      "Ġhundreds": 3799,
      "Ġtriump": 3800,
      "Ġshocked": 3801,
      "Ġjourney": 3802,
      "ĠCreatures": 3803,
      "Have": 3804,
      "Never": 3805,
      "aud": 3806,
      "aved": 3807,
      "bye": 3808,
      "co": 3809,
      "gar": 3810,
      "zz": 3811,
      "Ġaim": 3812,
      "lly": 3813,
      "Ġmount": 3814,
      "Ġpen": 3815,
      "oted": 3816,
      "using": 3817,
      "ĠSomething": 3818,
      "ĠSorting": 3819,
      "agged": 3820,
      "Ġspace": 3821,
      "angled": 3822,
      "ondon": 3823,
      "auld": 3824,
      "uffy": 3825,
      "Ġfinish": 3826,
      "Ġsquee": 3827,
      "Ġdived": 3828,
      "Ġconfused": 3829,
      "Ġhoped": 3830,
      "Ġstruggling": 3831,
      "Ġbasin": 3832,
      "Ġdemanded": 3833,
      "Ġprevious": 3834,
      "ĠLovegood": 3835,
      "Ġbreaking": 3836,
      "ĠWorld": 3837,
      "ĠColin": 3838,
      "Lagg": 3839,
      "Ġwave": 3840,
      "Ġwished": 3841,
      "Ġtoad": 3842,
      "Ġstir": 3843,
      "ading": 3844,
      "ĠDementor": 3845,
      "ayed": 3846,
      "âĢ¦.âĢĿ": 3847,
      "une": 3848,
      "ĠBog": 3849,
      "ĠLudo": 3850,
      "ĠLondon": 3851,
      "Ġvague": 3852,
      "aping": 3853,
      "Ġtwisted": 3854,
      "Ġdoorway": 3855,
      "Ġgrand": 3856,
      "Ġtele": 3857,
      "Ġwrite": 3858,
      "Ġsettled": 3859,
      "Ġinstruct": 3860,
      "ĠHeadmaster": 3861,
      "ĠFirenze": 3862,
      "Ġignored": 3863,
      "Ġshadows": 3864,
      "Ġscramb": 3865,
      "Ġfaint": 3866,
      "Ġconvin": 3867,
      "ĠOgden": 3868,
      "Laggen": 3869,
      ").": 3870,
      "iry": 3871,
      "Ġ,": 3872,
      "Ġtap": 3873,
      "Ġsour": 3874,
      "Ġbother": 3875,
      "Ġfan": 3876,
      "Ġfair": 3877,
      "iders": 3878,
      "Ġmakes": 3879,
      "Ġlim": 3880,
      "Ġlower": 3881,
      "usion": 3882,
      "Ġstro": 3883,
      "ĠMarge": 3884,
      "Ġtherefore": 3885,
      "Ġpop": 3886,
      "imey": 3887,
      "Ġsmir": 3888,
      "Ġbrown": 3889,
      "Ġcontact": 3890,
      "Ġwhisp": 3891,
      "shot": 3892,
      "Ġbroad": 3893,
      "Ġvisible": 3894,
      "Ġripped": 3895,
      "Ġleaves": 3896,
      "Ġgaze": 3897,
      "strang": 3898,
      "Ġchoice": 3899,
      "Ġbackwards": 3900,
      "Ġechoing": 3901,
      "Ġimagine": 3902,
      "ĠFrank": 3903,
      "Ġcounter": 3904,
      "Ġmurmured": 3905,
      "ĠGodric": 3906,
      "Ġswallowed": 3907,
      "Ġfireplace": 3908,
      "Sirius": 3909,
      "aun": 3910,
      "cise": 3911,
      "ded": 3912,
      "ov": 3913,
      "par": 3914,
      "Ġtired": 3915,
      "inger": 3916,
      "ĠHalf": 3917,
      "ĠMer": 3918,
      "ouldn": 3919,
      "Ġshudd": 3920,
      "ĠFin": 3921,
      "iful": 3922,
      "Ġalthough": 3923,
      "Ġdev": 3924,
      "elves": 3925,
      "Ġgets": 3926,
      "bbled": 3927,
      "Ġorder": 3928,
      "ĠOf": 3929,
      "Ġgrinned": 3930,
      "Then": 3931,
      "Ġkeen": 3932,
      "Ġnewsp": 3933,
      "Ġuseful": 3934,
      "Ġbuild": 3935,
      "Ġgazed": 3936,
      "Ġinteresting": 3937,
      "Ġfailed": 3938,
      "Ġchecking": 3939,
      "Ġburned": 3940,
      "Ġarmchair": 3941,
      "do": 3942,
      "tles": 3943,
      "ities": 3944,
      "Ġcrying": 3945,
      "llus": 3946,
      "Ġpin": 3947,
      "Ġpanting": 3948,
      "Ġstrid": 3949,
      "Ġnotes": 3950,
      "Ġkicked": 3951,
      "ĠCon": 3952,
      "Ġnodding": 3953,
      "ules": 3954,
      "Ġyours": 3955,
      "Ġunw": 3956,
      "estr": 3957,
      "Ġslip": 3958,
      "olute": 3959,
      "ĠMcLaggen": 3960,
      "Ġclasses": 3961,
      "Ġfourth": 3962,
      "Nothing": 3963,
      "Ġexpecting": 3964,
      "renched": 3965,
      "Ġappearance": 3966,
      "Ġcountry": 3967,
      "Ġmagn": 3968,
      "Ġreceived": 3969,
      "Ġunpleasant": 3970,
      "Ġbrilliant": 3971,
      "Ġbaby": 3972,
      "urmstrang": 3973,
      "ĠOWL": 3974,
      "Ġtriumph": 3975,
      "bat": 3976,
      "bow": 3977,
      "ĠYes": 3978,
      "Ġsway": 3979,
      "arters": 3980,
      "Ġbul": 3981,
      "Ġcaused": 3982,
      "Ġdu": 3983,
      "Ġpump": 3984,
      "ache": 3985,
      "usted": 3986,
      "uri": 3987,
      "ĠDon": 3988,
      "amm": 3989,
      "Ġjud": 3990,
      "elling": 3991,
      "logy": 3992,
      "Ġleaning": 3993,
      "Ġhandle": 3994,
      "Ġplate": 3995,
      "ĠEnt": 3996,
      "Ġenvelo": 3997,
      "Ġprefer": 3998,
      "Ġpeered": 3999,
      "Ġkey": 4000,
      "Ġdesp": 4001,
      "Ġsneak": 4002,
      "Ġlights": 4003,
      "ĠHallows": 4004,
      "Ġdistinct": 4005,
      "Thank": 4006,
      "Ġcontinue": 4007,
      "aturday": 4008,
      "Ġsuggest": 4009,
      "Ġattempting": 4010,
      "ĠBurrow": 4011,
      "Ġstatue": 4012,
      "ED": 4013,
      "Pl": 4014,
      "ige": 4015,
      "iol": 4016,
      "min": 4017,
      "Ġrough": 4018,
      "Ġslo": 4019,
      "Ġwet": 4020,
      "ĠHad": 4021,
      "ĠHist": 4022,
      "Ġtoile": 4023,
      "orough": 4024,
      "Ġdressed": 4025,
      "Ġlad": 4026,
      "Ġthunder": 4027,
      "ĠâĢľâĢ¦": 4028,
      "Ġgest": 4029,
      "Ġbeaut": 4030,
      "ĠSl": 4031,
      "ĠSaturday": 4032,
      "Ġreapp": 4033,
      "ĠDurmstrang": 4034,
      "ooked": 4035,
      "Ġant": 4036,
      "ĠBathilda": 4037,
      "ĠCome": 4038,
      "ĠFaw": 4039,
      "Ġexcellent": 4040,
      "Ġunus": 4041,
      "Ġblond": 4042,
      "gged": 4043,
      "Ġsecurity": 4044,
      "Ġenthus": 4045,
      "Ġexamining": 4046,
      "Ġbuy": 4047,
      "Ġaccomp": 4048,
      "Ġsweat": 4049,
      "ĠPrince": 4050,
      "Ġeasily": 4051,
      "Ġtort": 4052,
      "Ġpretending": 4053,
      "Ġcryst": 4054,
      "elwald": 4055,
      "One": 4056,
      "oh": 4057,
      "oon": 4058,
      "word": 4059,
      "Ġwife": 4060,
      "eding": 4061,
      "Ġbrave": 4062,
      "Ġcrou": 4063,
      "Ġdirty": 4064,
      "Ġthorough": 4065,
      "Ġpushing": 4066,
      "oop": 4067,
      "ĠPo": 4068,
      "acket": 4069,
      "ĠBr": 4070,
      "Ġknife": 4071,
      "Ġviol": 4072,
      "Ġexist": 4073,
      "ults": 4074,
      "Ġchar": 4075,
      "Ġsmashed": 4076,
      "Ġglaring": 4077,
      "Ġflash": 4078,
      "Ġteaching": 4079,
      "Ġwanting": 4080,
      "Ġmuff": 4081,
      "Ġlock": 4082,
      "Ġwizarding": 4083,
      "Ġdesce": 4084,
      "Ġstands": 4085,
      "Ġhandsome": 4086,
      "Ġhelping": 4087,
      "Ġfellow": 4088,
      "Ġdifficul": 4089,
      "Ġawake": 4090,
      "fortun": 4091,
      "Ġfigures": 4092,
      "ĠFrom": 4093,
      "Ġtemper": 4094,
      "Ġpunish": 4095,
      "ĠTwenty": 4096,
      "Ġessay": 4097,
      "quirement": 4098,
      "Ġabruptly": 4099,
      "terbeer": 4100,
      "ĠEntrance": 4101,
      "ĠHistory": 4102,
      "Ġdifficulty": 4103,
      "Snape": 4104,
      "post": 4105,
      "sure": 4106,
      "Ġtournament": 4107,
      "ĠHat": 4108,
      "ĠHippogriff": 4109,
      "Ġdying": 4110,
      "Ġinch": 4111,
      "Ġstad": 4112,
      "Ġstorm": 4113,
      "ĠMudblood": 4114,
      "ĠSqu": 4115,
      "uries": 4116,
      "Ġ'-": 4117,
      "umed": 4118,
      "ĠPlace": 4119,
      "Ġkiss": 4120,
      "Ġfeather": 4121,
      "Ġconst": 4122,
      "Ġplaces": 4123,
      "Ġcrash": 4124,
      "Ġwrote": 4125,
      "Ġcurled": 4126,
      "Ġcalling": 4127,
      "iping": 4128,
      "Ġrealize": 4129,
      "Ġdecide": 4130,
      "Ġsweet": 4131,
      "ĠRequirement": 4132,
      "Ġcolor": 4133,
      "Ġtower": 4134,
      "Ġurg": 4135,
      "Ġeleven": 4136,
      "Ġrubbish": 4137,
      "Ġinnocent": 4138,
      "Ġstadium": 4139,
      "OK": 4140,
      "ech": 4141,
      "ris": 4142,
      "son": 4143,
      "sand": 4144,
      "uce": 4145,
      "Ġhar": 4146,
      "Ġbought": 4147,
      "Ġdrif": 4148,
      "Ġlap": 4149,
      "Ġphoenix": 4150,
      "Ġgrew": 4151,
      "omed": 4152,
      "Ġstare": 4153,
      "icorn": 4154,
      "ĠMolly": 4155,
      "Ġaston": 4156,
      "ĠDi": 4157,
      "ĠPans": 4158,
      "Ġshif": 4159,
      "ĠWill": 4160,
      "ĠBul": 4161,
      "Ġ-âĢĻ": 4162,
      "ello": 4163,
      "Ġsocks": 4164,
      "Ġlives": 4165,
      "ĠLet": 4166,
      "Ġthousand": 4167,
      "Ġdeli": 4168,
      "Ġoverhead": 4169,
      "eless": 4170,
      "ĠElder": 4171,
      "angling": 4172,
      "Ġfloating": 4173,
      "Ġindic": 4174,
      "cient": 4175,
      "ĠBefore": 4176,
      "Ġsimple": 4177,
      "Ġdesperate": 4178,
      "Ġorders": 4179,
      "Ġfilthy": 4180,
      "Ġremoved": 4181,
      "Ġinstructions": 4182,
      "ĠPansy": 4183,
      "ES": 4184,
      "For": 4185,
      "Per": 4186,
      "RI": 4187,
      "Wh": 4188,
      "Ġtied": 4189,
      "Ġtaught": 4190,
      "arse": 4191,
      "Ġdull": 4192,
      "Ġdancing": 4193,
      "Ġgently": 4194,
      "Ġyawn": 4195,
      "Ġearn": 4196,
      "acour": 4197,
      "Ġstiff": 4198,
      "ĠIs": 4199,
      "stri": 4200,
      "ĠPig": 4201,
      "Ġrust": 4202,
      "aker": 4203,
      "Ġjus": 4204,
      "Ġval": 4205,
      "ĠNige": 4206,
      "ops": 4207,
      "Ġscree": 4208,
      "Ġglimp": 4209,
      "Ġlose": 4210,
      "ĠNext": 4211,
      "Ġcontr": 4212,
      "Ġfinding": 4213,
      "Ġclearing": 4214,
      "Thanks": 4215,
      "Ġpossibly": 4216,
      "Ġcompany": 4217,
      "Ġmurder": 4218,
      "Ġoddly": 4219,
      "Ġdreams": 4220,
      "Ġmidnight": 4221,
      "Ġmentioned": 4222,
      "Ġillumin": 4223,
      "Ġchampion": 4224,
      "ĠDefense": 4225,
      "Ġwildly": 4226,
      "Ġrolling": 4227,
      "Ġsqueaked": 4228,
      "ĠDelacour": 4229,
      "Ġexperi": 4230,
      "Ġcarriage": 4231,
      "iktor": 4232,
      "Ġwhistle": 4233,
      "Ġstriding": 4234,
      "Ġcrystal": 4235,
      "ĠNigellus": 4236,
      "AS": 4237,
      "Hello": 4238,
      "iped": 4239,
      "kward": 4240,
      "line": 4241,
      "mp": 4242,
      "Ġaunt": 4243,
      "asy": 4244,
      "Ġpick": 4245,
      "Ġgig": 4246,
      "Ġstars": 4247,
      "Ġstunned": 4248,
      "icy": 4249,
      "ĠMo": 4250,
      "Ġweird": 4251,
      "Ġsepar": 4252,
      "Ġupset": 4253,
      "ĠGaunt": 4254,
      "Ġvar": 4255,
      "Ġroar": 4256,
      "Ġconj": 4257,
      "Ġglow": 4258,
      "Ġgrin": 4259,
      "Ġeng": 4260,
      "Ġprevent": 4261,
      "sidered": 4262,
      "uddy": 4263,
      "Ġboard": 4264,
      "ĠGrimm": 4265,
      "Ġbadge": 4266,
      "Ġbrooms": 4267,
      "Ġanswered": 4268,
      "Ġstaying": 4269,
      "Ġdifference": 4270,
      "Ġplanning": 4271,
      "Ġsleeping": 4272,
      "Ġclutched": 4273,
      "Ġcircle": 4274,
      "Ġtransform": 4275,
      "Ġwonderful": 4276,
      "Ġfrozen": 4277,
      "ĠSecrets": 4278,
      "Ġsurrounded": 4279,
      "ĠSeeker": 4280,
      "ĠImper": 4281,
      "ĠMorfin": 4282,
      "Ġprivate": 4283,
      "ĠFawkes": 4284,
      "Ġgigantic": 4285,
      "ĠGrimmauld": 4286,
      "Every": 4287,
      "cher": 4288,
      "ibb": 4289,
      "kn": 4290,
      "over": 4291,
      "Ġing": 4292,
      "Ġfully": 4293,
      "ittle": 4294,
      "Ġhell": 4295,
      "Ġeating": 4296,
      "oolly": 4297,
      "ĠTH": 4298,
      "Ġrese": 4299,
      "rian": 4300,
      "ĠRos": 4301,
      "Ġanim": 4302,
      "ĠBoth": 4303,
      "top": 4304,
      "Ġjet": 4305,
      "quarters": 4306,
      "Ġages": 4307,
      "Ġspiders": 4308,
      "Ġconsidered": 4309,
      "Ġscri": 4310,
      "Ġflick": 4311,
      "ĠKing": 4312,
      "Ġbecoming": 4313,
      "Ġlosing": 4314,
      "bert": 4315,
      "Ġhoarse": 4316,
      "Ġenter": 4317,
      "aws": 4318,
      "Ġskull": 4319,
      "Ġbreathed": 4320,
      "Ġawkward": 4321,
      "Ġsprinted": 4322,
      "Ġbattle": 4323,
      "Ġdiscovered": 4324,
      "Ġstruggled": 4325,
      "ĠNorris": 4326,
      "Ġzoomed": 4327,
      "Le": 4328,
      "OW": 4329,
      "bel": 4330,
      "ipe": 4331,
      "pes": 4332,
      "years": 4333,
      "Ġtunn": 4334,
      "Ġwound": 4335,
      "Ġblo": 4336,
      "Ġbowed": 4337,
      "Ġbald": 4338,
      "Ġfought": 4339,
      "attering": 4340,
      "Ġcamp": 4341,
      "Ġdue": 4342,
      "ĠâĢľâĢĶ": 4343,
      "lebr": 4344,
      "Ġstate": 4345,
      "ĠMung": 4346,
      "ĠMaster": 4347,
      "Ġsending": 4348,
      "Ġneat": 4349,
      "ĠGru": 4350,
      "Ġrum": 4351,
      "Ġrisk": 4352,
      "Ġchuck": 4353,
      "Ġunicorn": 4354,
      "Ġwhenever": 4355,
      "aux": 4356,
      "uffled": 4357,
      "Ġterror": 4358,
      "Ġsupport": 4359,
      "Ġgrey": 4360,
      "Ġgreet": 4361,
      "reaked": 4362,
      "Ġdeeper": 4363,
      "Ġstraightened": 4364,
      "Ġstuffed": 4365,
      "Ġstreng": 4366,
      "axley": 4367,
      "Ġconsider": 4368,
      "Ġobvious": 4369,
      "Ġmessage": 4370,
      "Ġsurrounding": 4371,
      "Ġreminded": 4372,
      "Ġapplause": 4373,
      "Ġdisappointed": 4374,
      "Ġinterrupted": 4375,
      "Ġfolded": 4376,
      "Ġvault": 4377,
      "Ġconvinced": 4378,
      "ĠDiagon": 4379,
      "ĠGrubbly": 4380,
      "GH": 4381,
      "Hi": 4382,
      "ccl": 4383,
      "time": 4384,
      "uly": 4385,
      "Ġtongue": 4386,
      "heard": 4387,
      "Ġbrief": 4388,
      "Ġcow": 4389,
      "Ġdaz": 4390,
      "Ġlaid": 4391,
      "Ġgn": 4392,
      "Ġner": 4393,
      "ĠBroom": 4394,
      "ĠFel": 4395,
      "ĠFigg": 4396,
      "arty": 4397,
      "Ġsucc": 4398,
      "Ġunlike": 4399,
      "Ġgrate": 4400,
      "Ġprodu": 4401,
      "Ġcontents": 4402,
      "Ġdrown": 4403,
      "ensive": 4404,
      "Ġmemories": 4405,
      "Ġcelebr": 4406,
      "Ġreport": 4407,
      "Ġsunlight": 4408,
      "Ġshrugged": 4409,
      "Ġcrept": 4410,
      "Ġincluding": 4411,
      "Ġpowers": 4412,
      "ceeded": 4413,
      "Ġentirely": 4414,
      "Ġwelcome": 4415,
      "ĠGrindelwald": 4416,
      "Ġscrambled": 4417,
      "uriel": 4418,
      "Plank": 4419,
      "Ġtoilet": 4420,
      "Ġthoroughly": 4421,
      "Voldemort": 4422,
      "aim": 4423,
      "dge": 4424,
      "ground": 4425,
      "ky": 4426,
      "lass": 4427,
      "Ġbust": 4428,
      "ĠHoo": 4429,
      "Ġtot": 4430,
      "Ġcard": 4431,
      "Ġmotion": 4432,
      "ĠâĢľ'": 4433,
      "ĠTO": 4434,
      "urb": 4435,
      "Ġfort": 4436,
      "ume": 4437,
      "ĠAd": 4438,
      "Ġgoes": 4439,
      "Ġbacked": 4440,
      "Ġiss": 4441,
      "Ġaband": 4442,
      "Ġclen": 4443,
      "Ġmod": 4444,
      "Ġtrunks": 4445,
      "Ġglared": 4446,
      "Ġclock": 4447,
      "Ġbringing": 4448,
      "ordan": 4449,
      "Ġstruck": 4450,
      "Ġclever": 4451,
      "ails": 4452,
      "Ġstudy": 4453,
      "cio": 4454,
      "Ġexams": 4455,
      "Ġrefused": 4456,
      "Ġportraits": 4457,
      "Ġwarned": 4458,
      "Ġfifth": 4459,
      "Ġerup": 4460,
      "Ġimagined": 4461,
      "Ġspiral": 4462,
      "ength": 4463,
      "Ġsparks": 4464,
      "Ġdrawn": 4465,
      "Ġsleeve": 4466,
      "Ġcroaked": 4467,
      "ĠPeople": 4468,
      "Ġbitterly": 4469,
      "ĠKeeper": 4470,
      "merta": 4471,
      "Ġnewspaper": 4472,
      "batons": 4473,
      "ĠMungo": 4474,
      "auxbatons": 4475,
      "cclum": 4476,
      "IT": 4477,
      "Or": 4478,
      "mon": 4479,
      "Ġid": 4480,
      "Ġamb": 4481,
      "Ġsinging": 4482,
      "ert": 4483,
      "Ġbod": 4484,
      "Ġbank": 4485,
      "ĠHollow": 4486,
      "itude": 4487,
      "Ġcausing": 4488,
      "Ġdry": 4489,
      "icia": 4490,
      "irling": 4491,
      "irteen": 4492,
      "ĠMac": 4493,
      "ĠMuriel": 4494,
      "Ġself": 4495,
      "ĠBE": 4496,
      "Ġris": 4497,
      "Ġlip": 4498,
      "Ġconn": 4499,
      "aptain": 4500,
      "Ġscra": 4501,
      "ĠOcclum": 4502,
      "Ġgras": 4503,
      "Ġdism": 4504,
      "Ġcracked": 4505,
      "Ġimpressed": 4506,
      "Ġdropping": 4507,
      "Ġhorse": 4508,
      "Ġcrowded": 4509,
      "ĠYaxley": 4510,
      "ĠAlicia": 4511,
      "Ġinterv": 4512,
      "Ġincre": 4513,
      "Ġbrothers": 4514,
      "aturally": 4515,
      "Ġadmit": 4516,
      "Ġmarks": 4517,
      "Ġevidence": 4518,
      "ĠAuror": 4519,
      "Ġstaggered": 4520,
      "Ġvaguely": 4521,
      "Ġwhispering": 4522,
      "Ġenvelope": 4523,
      "ĠHooch": 4524,
      "ixt": 4525,
      "jam": 4526,
      "mos": 4527,
      "Ġhorn": 4528,
      "Ġfal": 4529,
      "Ġdashed": 4530,
      "Ġbeak": 4531,
      "ĠTournament": 4532,
      "Ġsea": 4533,
      "Ġshown": 4534,
      "Ġshoot": 4535,
      "Ġrap": 4536,
      "ĠCan": 4537,
      "ĠCare": 4538,
      "ĠFe": 4539,
      "astically": 4540,
      "ouring": 4541,
      "Ġroad": 4542,
      "Ġaloud": 4543,
      "ĠNever": 4544,
      "Ġchin": 4545,
      "Ġhanding": 4546,
      "Ġscow": 4547,
      "Ġclapped": 4548,
      "aughter": 4549,
      "Ġflood": 4550,
      "Ġclosing": 4551,
      "Ġbottles": 4552,
      "Ġdarkly": 4553,
      "onscious": 4554,
      "ĠInst": 4555,
      "ission": 4556,
      "ĠDoge": 4557,
      "Ġpleasure": 4558,
      "Ġboat": 4559,
      "ĠPeter": 4560,
      "Ġrelieved": 4561,
      "ĠBeauxbatons": 4562,
      "Ġopport": 4563,
      "steries": 4564,
      "ĠNothing": 4565,
      "ĠSeveral": 4566,
      "Ġbewild": 4567,
      "Really": 4568,
      "Ġprepared": 4569,
      "ĠRegulus": 4570,
      "arrass": 4571,
      "ĠAND": 4572,
      "Ġmuffled": 4573,
      "Must": 4574,
      "Please": 4575,
      "book": 4576,
      "cut": 4577,
      "ean": 4578,
      "wid": 4579,
      "Ġsink": 4580,
      "Ġwed": 4581,
      "Ġwis": 4582,
      "Ġwid": 4583,
      "Ġwore": 4584,
      "Ġfang": 4585,
      "ato": 4586,
      "ator": 4587,
      "Ġcapt": 4588,
      "lling": 4589,
      "Ġpred": 4590,
      "Ġpicking": 4591,
      "outs": 4592,
      "Ġwear": 4593,
      "ented": 4594,
      "ĠSp": 4595,
      "Ġrequ": 4596,
      "urg": 4597,
      "Ġrules": 4598,
      "que": 4599,
      "ĠLestr": 4600,
      "Ġoffered": 4601,
      "Ġplenty": 4602,
      "Ġplates": 4603,
      "Ġspecial": 4604,
      "Ġneeds": 4605,
      "Ġamount": 4606,
      "Ġolder": 4607,
      "aze": 4608,
      "eyed": 4609,
      "Ġkindly": 4610,
      "Ġchecked": 4611,
      "Ġbarrier": 4612,
      "Ġignoring": 4613,
      "Ġeggs": 4614,
      "ĠExp": 4615,
      "Ġfamilies": 4616,
      "Ġmassive": 4617,
      "Ġdiscuss": 4618,
      "Ġirritably": 4619,
      "ĠRemus": 4620,
      "Ġfavorite": 4621,
      "Ġspectacles": 4622,
      "Ġwrapped": 4623,
      "Ġcorrect": 4624,
      "ĠBogg": 4625,
      "Ġaccompan": 4626,
      "riana": 4627,
      "Ġtunnel": 4628,
      "CK": 4629,
      "Course": 4630,
      "Got": 4631,
      "Master": 4632,
      "gress": 4633,
      "hand": 4634,
      "iver": 4635,
      "tr": 4636,
      "Ġaut": 4637,
      "ini": 4638,
      "Ġwrenched": 4639,
      "Ġwiping": 4640,
      "Ġhate": 4641,
      "arger": 4642,
      "Ġcous": 4643,
      "asantly": 4644,
      "Ġdawn": 4645,
      "Ġmumbled": 4646,
      "Ġsav": 4647,
      "Ġbear": 4648,
      "Ġstar": 4649,
      "ooping": 4650,
      "uttering": 4651,
      "Ġweather": 4652,
      "Ġash": 4653,
      "agog": 4654,
      "ries": 4655,
      "Ġank": 4656,
      "amped": 4657,
      "Ġgod": 4658,
      "Ġchanging": 4659,
      "Ġblow": 4660,
      "ĠViktor": 4661,
      "ivered": 4662,
      "Ġcomes": 4663,
      "Ġbrisk": 4664,
      "ĠChas": 4665,
      "Ġprison": 4666,
      "ĠThough": 4667,
      "Ġended": 4668,
      "Ġkeeps": 4669,
      "Ġdistracted": 4670,
      "Ġcoat": 4671,
      "Ġdecis": 4672,
      "ĠOnly": 4673,
      "Ġrubbing": 4674,
      "Ġknocking": 4675,
      "âĢĶâĢĿ": 4676,
      "Ġgrimly": 4677,
      "Ġembarrass": 4678,
      "Ġpubl": 4679,
      "Ġcentaurs": 4680,
      "Ġpounding": 4681,
      "ovitch": 4682,
      "olutely": 4683,
      "ĠPigwid": 4684,
      "Keep": 4685,
      "Sir": 4686,
      "lish": 4687,
      "pted": 4688,
      "Ġident": 4689,
      "Ġtill": 4690,
      "âĢĺ": 4691,
      "Ġsong": 4692,
      "reen": 4693,
      "oning": 4694,
      "ĠHigh": 4695,
      "atively": 4696,
      "Ġhex": 4697,
      "Ġlarger": 4698,
      "Ġpages": 4699,
      "otting": 4700,
      "use": 4701,
      "Ġstu": 4702,
      "ĠIN": 4703,
      "Ġweap": 4704,
      "adem": 4705,
      "ribly": 4706,
      "ĠRo": 4707,
      "chief": 4708,
      "ĠAriana": 4709,
      "Ġshape": 4710,
      "ledge": 4711,
      "ĠGreg": 4712,
      "Ġvast": 4713,
      "Ġvict": 4714,
      "Ġnowhere": 4715,
      "Ġblame": 4716,
      "Ġblinked": 4717,
      "Ġarr": 4718,
      "Ġswear": 4719,
      "Ġremaining": 4720,
      "Ġaccept": 4721,
      "Ġsilently": 4722,
      "unged": 4723,
      "Ġimpro": 4724,
      "Ġcurious": 4725,
      "Ġcuriously": 4726,
      "Ġraise": 4727,
      "Ġsetting": 4728,
      "ĠJordan": 4729,
      "ĠStill": 4730,
      "osen": 4731,
      "Ġsteal": 4732,
      "retched": 4733,
      "ĠAnyway": 4734,
      "Ġpainful": 4735,
      "Ġburied": 4736,
      "Ġstayed": 4737,
      "Ġdisappear": 4738,
      "bology": 4739,
      "Ġmatters": 4740,
      "Ġserp": 4741,
      "they": 4742,
      "theless": 4743,
      "Ġcollap": 4744,
      "Ġoccurred": 4745,
      "Ġsafely": 4746,
      "Any": 4747,
      "Ġbowl": 4748,
      "Ġsearch": 4749,
      "Ġdusty": 4750,
      "Ġreplied": 4751,
      "Ġseventh": 4752,
      "anned": 4753,
      "Ġfoolish": 4754,
      "Ġpersuade": 4755,
      "Ġfiercely": 4756,
      "ĠImperius": 4757,
      "ĠBroomstick": 4758,
      "ĠOcclumency": 4759,
      "ĠPigwidgeon": 4760,
      "AL": 4761,
      "UT": 4762,
      "Yeh": 4763,
      "dy": 4764,
      "ex": 4765,
      "lve": 4766,
      "ract": 4767,
      "ule": 4768,
      "Ġutter": 4769,
      "Ġband": 4770,
      "Ġfake": 4771,
      "ĠHE": 4772,
      "Ġcaut": 4773,
      "asc": 4774,
      "asing": 4775,
      "Ġmot": 4776,
      "Ġpool": 4777,
      "Ġstern": 4778,
      "icious": 4779,
      "Ġneigh": 4780,
      "ĠCatter": 4781,
      "Ġshelves": 4782,
      "Ġlies": 4783,
      "Ġroots": 4784,
      "igan": 4785,
      "auldron": 4786,
      "Ġflight": 4787,
      "ĠUnder": 4788,
      "idding": 4789,
      "Ġspeech": 4790,
      "Ġwrist": 4791,
      "ship": 4792,
      "Ġstartled": 4793,
      "ĠMysteries": 4794,
      "Ġregret": 4795,
      "Ġgiants": 4796,
      "Ġpictures": 4797,
      "Ġblankly": 4798,
      "Ġcentaur": 4799,
      "Ġdreadful": 4800,
      "Ġappreci": 4801,
      "Ġnoises": 4802,
      "Ġbranches": 4803,
      "Ġbeautiful": 4804,
      "ĠRosmerta": 4805,
      "ĠBoggart": 4806,
      "Ġgodfather": 4807,
      "Al": 4808,
      "Kreacher": 4809,
      "bag": 4810,
      "bble": 4811,
      "for": 4812,
      "Ġourse": 4813,
      "Ġach": 4814,
      "Ġhouses": 4815,
      "erth": 4816,
      "Ġban": 4817,
      "Ġborn": 4818,
      "Ġborrow": 4819,
      "orovitch": 4820,
      "Ġpet": 4821,
      "Ġpub": 4822,
      "Ġgarg": 4823,
      "omas": 4824,
      "Ġbeamed": 4825,
      "robe": 4826,
      "uture": 4827,
      "Ġrele": 4828,
      "kend": 4829,
      "alled": 4830,
      "Ġshrill": 4831,
      "ĠWH": 4832,
      "ĠBinn": 4833,
      "Ġ-?'": 4834,
      "Ġrush": 4835,
      "ĠCauldron": 4836,
      "ulously": 4837,
      "Ġchosen": 4838,
      "elp": 4839,
      "icken": 4840,
      "arkins": 4841,
      "Ġplans": 4842,
      "Ġartic": 4843,
      "Ġgrown": 4844,
      "ĠKn": 4845,
      "Ġways": 4846,
      "ording": 4847,
      "Ġdesire": 4848,
      "Ġsniff": 4849,
      "Ġmeaning": 4850,
      "lier": 4851,
      "Ġrespect": 4852,
      "Ġinstantly": 4853,
      "Ġcarp": 4854,
      "Ġmember": 4855,
      "Ġplayed": 4856,
      "Ġinsides": 4857,
      "Ġyounger": 4858,
      "Ġsprang": 4859,
      "Ġevil": 4860,
      "ĠHerbology": 4861,
      "Ġintrod": 4862,
      "Ġthrust": 4863,
      "Ġvelve": 4864,
      "Ġglee": 4865,
      "ĠMaraud": 4866,
      "Ġenjoying": 4867,
      "Ġbleeding": 4868,
      "Ġseventeen": 4869,
      "Ġcheerful": 4870,
      "mole": 4871,
      "Ġsnatched": 4872,
      "Ġidi": 4873,
      "jamas": 4874,
      "Ġwedding": 4875,
      "Ġourselves": 4876,
      "Mad": 4877,
      "OM": 4878,
      "band": 4879,
      "foot": 4880,
      "oc": 4881,
      "uch": 4882,
      "Ġicy": 4883,
      "Ġtapped": 4884,
      "Ġsides": 4885,
      "Ġwoke": 4886,
      "Ġhated": 4887,
      "Ġcell": 4888,
      "Ġlump": 4889,
      "Ġintend": 4890,
      "Ġnon": 4891,
      "Ġbearing": 4892,
      "Ġwhipped": 4893,
      "ĠMap": 4894,
      "ĠSir": 4895,
      "ĠDA": 4896,
      "Ġforcing": 4897,
      "Ġseve": 4898,
      "ĠPhoenix": 4899,
      "Ġshake": 4900,
      "ĠBarty": 4901,
      "ilty": 4902,
      "ilisk": 4903,
      "Ġrise": 4904,
      "ustr": 4905,
      "quis": 4906,
      "Ġabou": 4907,
      "Ġsuper": 4908,
      "Ġspoken": 4909,
      "apers": 4910,
      "Ġmoaned": 4911,
      "Ġcomment": 4912,
      "Ġswif": 4913,
      "Ġgrunted": 4914,
      "ĠThomas": 4915,
      "Ġcrump": 4916,
      "Ġpassword": 4917,
      "Ġsuppor": 4918,
      "Ġbeds": 4919,
      "neath": 4920,
      "ilder": 4921,
      "Ġskrew": 4922,
      "Ġyelling": 4923,
      "ĠAragog": 4924,
      "rawled": 4925,
      "Ġsigns": 4926,
      "Ġweekend": 4927,
      "Ġhopefully": 4928,
      "Ġbreathlessly": 4929,
      "Ġhats": 4930,
      "intment": 4931,
      "Ġpresence": 4932,
      "Ġcollect": 4933,
      "Ġbarked": 4934,
      "Ġquills": 4935,
      "Ġtransp": 4936,
      "ĠJustin": 4937,
      "Ġpromise": 4938,
      "Ġsearching": 4939,
      "Ġextraord": 4940,
      "Ġreplaced": 4941,
      "Ġcircular": 4942,
      "Ġpermission": 4943,
      "Ġcandle": 4944,
      "ottage": 4945,
      "Ġdamage": 4946,
      "Only": 4947,
      "Ġindignantly": 4948,
      "ĠFinally": 4949,
      "fortunately": 4950,
      "Ġstrength": 4951,
      "Ġbewildered": 4952,
      "Ġneighb": 4953,
      "ĠCattermole": 4954,
      "ĠBinns": 4955,
      "De": 4956,
      "TER": 4957,
      "cri": 4958,
      "down": 4959,
      "men": 4960,
      "olo": 4961,
      "Ġtim": 4962,
      "Ġtense": 4963,
      "rer": 4964,
      "Ġhic": 4965,
      "Ġbuck": 4966,
      "Ġfaced": 4967,
      "itor": 4968,
      "Ġlines": 4969,
      "Ġpurs": 4970,
      "ĠST": 4971,
      "ales": 4972,
      "Ġwitness": 4973,
      "ĠPort": 4974,
      "ĠParkins": 4975,
      "Ġfrag": 4976,
      "Ġjuice": 4977,
      "elled": 4978,
      "antically": 4979,
      "Ġagree": 4980,
      "Ġoverheard": 4981,
      "Ġknowledge": 4982,
      "Ġchamber": 4983,
      "Ġblast": 4984,
      "Ġorange": 4985,
      "ĠOwl": 4986,
      "Ġbrains": 4987,
      "ĠDec": 4988,
      "hens": 4989,
      "Ġgreatest": 4990,
      "Ġsitu": 4991,
      "Ġlistened": 4992,
      "ĠForbidden": 4993,
      "Ġmonster": 4994,
      "Ġpockets": 4995,
      "Ġsweeping": 4996,
      "Ġunconscious": 4997,
      "Ġpieces": 4998,
      "Ġchocolate": 4999
    },
    "merges": [
      [
        "Ġ",
        "t"
      ],
      [
        "h",
        "e"
      ],
      [
        "Ġ",
        "a"
      ],
      [
        "i",
        "n"
      ],
      [
        "â",
        "Ģ"
      ],
      [
        "Ġ",
        "s"
      ],
      [
        "Ġ",
        "w"
      ],
      [
        "Ġt",
        "he"
      ],
      [
        "r",
        "e"
      ],
      [
        "o",
        "u"
      ],
      [
        "Ġ",
        "h"
      ],
      [
        "e",
        "d"
      ],
      [
        "o",
        "n"
      ],
      [
        "in",
        "g"
      ],
      [
        "e",
        "r"
      ],
      [
        "a",
        "r"
      ],
      [
        "n",
        "d"
      ],
      [
        "Ġ",
        "b"
      ],
      [
        "Ġ",
        "Ċ"
      ],
      [
        "Ġ",
        "f"
      ],
      [
        "Ġ",
        "o"
      ],
      [
        "Ġ",
        "H"
      ],
      [
        "Ġ",
        "âĢ"
      ],
      [
        "a",
        "t"
      ],
      [
        "i",
        "s"
      ],
      [
        "Ġt",
        "o"
      ],
      [
        "i",
        "t"
      ],
      [
        "Ġ",
        "c"
      ],
      [
        "a",
        "s"
      ],
      [
        "l",
        "l"
      ],
      [
        "o",
        "r"
      ],
      [
        "i",
        "d"
      ],
      [
        "Ġ",
        "he"
      ],
      [
        "e",
        "n"
      ],
      [
        "Ġ",
        "d"
      ],
      [
        "Ġ",
        "m"
      ],
      [
        "Ġ",
        "l"
      ],
      [
        "Ġa",
        "nd"
      ],
      [
        "Ġt",
        "h"
      ],
      [
        "Ġo",
        "f"
      ],
      [
        "ĠâĢ",
        "ľ"
      ],
      [
        "âĢ",
        "Ļ"
      ],
      [
        "r",
        "y"
      ],
      [
        "âĢ",
        "Ŀ"
      ],
      [
        "Ġ",
        "p"
      ],
      [
        "e",
        "s"
      ],
      [
        "Ġh",
        "a"
      ],
      [
        "Ġ",
        "in"
      ],
      [
        "Ġ",
        "g"
      ],
      [
        "a",
        "n"
      ],
      [
        "Ġ",
        "n"
      ],
      [
        "l",
        "e"
      ],
      [
        "ar",
        "ry"
      ],
      [
        "o",
        "w"
      ],
      [
        "Ġs",
        "a"
      ],
      [
        "l",
        "y"
      ],
      [
        "ĠH",
        "arry"
      ],
      [
        "o",
        "t"
      ],
      [
        "Ġ",
        "y"
      ],
      [
        "o",
        "m"
      ],
      [
        "Ġw",
        "as"
      ],
      [
        "Ġb",
        "e"
      ],
      [
        "g",
        "h"
      ],
      [
        "Ġsa",
        "id"
      ],
      [
        "Ġ",
        "e"
      ],
      [
        "a",
        "c"
      ],
      [
        "Ġh",
        "is"
      ],
      [
        "l",
        "d"
      ],
      [
        "Ġy",
        "ou"
      ],
      [
        "i",
        "m"
      ],
      [
        "u",
        "s"
      ],
      [
        "v",
        "e"
      ],
      [
        "Ġs",
        "t"
      ],
      [
        "o",
        "o"
      ],
      [
        "Ġ",
        "it"
      ],
      [
        "Ġ",
        "I"
      ],
      [
        "Ġ",
        "on"
      ],
      [
        "e",
        "t"
      ],
      [
        "i",
        "c"
      ],
      [
        "v",
        "er"
      ],
      [
        "i",
        "on"
      ],
      [
        "r",
        "o"
      ],
      [
        "Ġw",
        "h"
      ],
      [
        "i",
        "r"
      ],
      [
        "Ġha",
        "d"
      ],
      [
        "u",
        "t"
      ],
      [
        "Ġ",
        "T"
      ],
      [
        "Ġth",
        "at"
      ],
      [
        "gh",
        "t"
      ],
      [
        "Ġ",
        "M"
      ],
      [
        "ou",
        "t"
      ],
      [
        "Ġw",
        "e"
      ],
      [
        "en",
        "t"
      ],
      [
        "a",
        "d"
      ],
      [
        "Ġa",
        "t"
      ],
      [
        "Ġa",
        "s"
      ],
      [
        "Ġ",
        "u"
      ],
      [
        "Ġ",
        "S"
      ],
      [
        "Ġ",
        "re"
      ],
      [
        "u",
        "r"
      ],
      [
        "Ġ",
        "D"
      ],
      [
        "a",
        "l"
      ],
      [
        "Ġ",
        "'"
      ],
      [
        "Ġh",
        "im"
      ],
      [
        "o",
        "re"
      ],
      [
        "s",
        "e"
      ],
      [
        "a",
        "g"
      ],
      [
        "s",
        "t"
      ],
      [
        "r",
        "i"
      ],
      [
        "Ġ",
        "R"
      ],
      [
        "Ġw",
        "it"
      ],
      [
        "k",
        "e"
      ],
      [
        "c",
        "h"
      ],
      [
        "oo",
        "k"
      ],
      [
        "ou",
        "ld"
      ],
      [
        "Ġwit",
        "h"
      ],
      [
        "re",
        "d"
      ],
      [
        "a",
        "y"
      ],
      [
        ",",
        "âĢĿ"
      ],
      [
        "Ġa",
        "n"
      ],
      [
        "Ġf",
        "or"
      ],
      [
        "a",
        "m"
      ],
      [
        "Ġs",
        "e"
      ],
      [
        "'",
        "s"
      ],
      [
        "t",
        "er"
      ],
      [
        "he",
        "r"
      ],
      [
        "u",
        "m"
      ],
      [
        "Ġ",
        "P"
      ],
      [
        "p",
        "p"
      ],
      [
        "a",
        "ll"
      ],
      [
        "ĠT",
        "he"
      ],
      [
        "ĠR",
        "on"
      ],
      [
        "Ġn",
        "ot"
      ],
      [
        "i",
        "ll"
      ],
      [
        "Ġ",
        "A"
      ],
      [
        "ac",
        "k"
      ],
      [
        "r",
        "ou"
      ],
      [
        "ar",
        "d"
      ],
      [
        "Ġs",
        "h"
      ],
      [
        "l",
        "ed"
      ],
      [
        "er",
        "m"
      ],
      [
        "Ġ",
        "k"
      ],
      [
        "p",
        "e"
      ],
      [
        "ĠH",
        "e"
      ],
      [
        "Ġhe",
        "r"
      ],
      [
        "a",
        "in"
      ],
      [
        "e",
        "m"
      ],
      [
        "Ġl",
        "ook"
      ],
      [
        "erm",
        "ion"
      ],
      [
        "ermion",
        "e"
      ],
      [
        "Ġ",
        "W"
      ],
      [
        "Ġf",
        "r"
      ],
      [
        "Ġu",
        "p"
      ],
      [
        "ĠH",
        "ermione"
      ],
      [
        "Ġd",
        "o"
      ],
      [
        "i",
        "ght"
      ],
      [
        "Ġthe",
        "y"
      ],
      [
        "c",
        "e"
      ],
      [
        "Ġ",
        "out"
      ],
      [
        "es",
        "s"
      ],
      [
        "?",
        "âĢĿ"
      ],
      [
        "ĠâĢ",
        "ĺ"
      ],
      [
        "âĢ",
        "¦"
      ],
      [
        "u",
        "n"
      ],
      [
        "a",
        "nd"
      ],
      [
        "in",
        "d"
      ],
      [
        "g",
        "e"
      ],
      [
        "Ġ",
        "B"
      ],
      [
        ".",
        "âĢĿ"
      ],
      [
        "Ġwe",
        "re"
      ],
      [
        "Ġm",
        "e"
      ],
      [
        "Ġthe",
        "m"
      ],
      [
        "Ġn",
        "e"
      ],
      [
        "Ġk",
        "n"
      ],
      [
        "Ġ",
        "-"
      ],
      [
        "i",
        "l"
      ],
      [
        "Ġ",
        "G"
      ],
      [
        "t",
        "ed"
      ],
      [
        "Ġ",
        "r"
      ],
      [
        "Ġ",
        "C"
      ],
      [
        "Ġf",
        "e"
      ],
      [
        "t",
        "o"
      ],
      [
        "Ġa",
        "ll"
      ],
      [
        "a",
        "k"
      ],
      [
        "Ġ",
        "F"
      ],
      [
        "i",
        "f"
      ],
      [
        "Ġb",
        "ut"
      ],
      [
        "Ġs",
        "he"
      ],
      [
        "Ġha",
        "ve"
      ],
      [
        "Ġfr",
        "om"
      ],
      [
        "Ġ",
        "j"
      ],
      [
        "um",
        "b"
      ],
      [
        "h",
        "ing"
      ],
      [
        "us",
        "t"
      ],
      [
        "Ġg",
        "o"
      ],
      [
        "c",
        "k"
      ],
      [
        "om",
        "e"
      ],
      [
        "ver",
        "y"
      ],
      [
        "e",
        "ll"
      ],
      [
        "oo",
        "d"
      ],
      [
        "Ġs",
        "o"
      ],
      [
        "as",
        "t"
      ],
      [
        "he",
        "d"
      ],
      [
        "on",
        "e"
      ],
      [
        "b",
        "le"
      ],
      [
        "l",
        "o"
      ],
      [
        "Ġw",
        "he"
      ],
      [
        "Ġb",
        "ack"
      ],
      [
        "!",
        "âĢĿ"
      ],
      [
        "q",
        "u"
      ],
      [
        "or",
        "t"
      ],
      [
        "umb",
        "led"
      ],
      [
        "Ġin",
        "to"
      ],
      [
        "'",
        "t"
      ],
      [
        "Ġl",
        "i"
      ],
      [
        "ow",
        "n"
      ],
      [
        "id",
        "e"
      ],
      [
        "Ġ",
        "L"
      ],
      [
        "Ġd",
        "id"
      ],
      [
        "umbled",
        "ore"
      ],
      [
        "Ġwh",
        "o"
      ],
      [
        "Ġwh",
        "at"
      ],
      [
        "Ġc",
        "ould"
      ],
      [
        "Ġ",
        "v"
      ],
      [
        "u",
        "d"
      ],
      [
        "an",
        "t"
      ],
      [
        "ar",
        "t"
      ],
      [
        "rou",
        "nd"
      ],
      [
        "Ġbe",
        "en"
      ],
      [
        "r",
        "id"
      ],
      [
        "ou",
        "r"
      ],
      [
        "Ġ",
        "is"
      ],
      [
        "Ġth",
        "ou"
      ],
      [
        "ĠD",
        "umbledore"
      ],
      [
        "Ġa",
        "b"
      ],
      [
        "Ġe",
        "x"
      ],
      [
        "Ġl",
        "e"
      ],
      [
        "in",
        "k"
      ],
      [
        ",",
        "'"
      ],
      [
        "is",
        "t"
      ],
      [
        "Ġn",
        "o"
      ],
      [
        "l",
        "f"
      ],
      [
        "r",
        "a"
      ],
      [
        "Ġa",
        "g"
      ],
      [
        "Ġ",
        "ro"
      ],
      [
        "ic",
        "e"
      ],
      [
        "ou",
        "s"
      ],
      [
        "Ġa",
        "l"
      ],
      [
        "c",
        "t"
      ],
      [
        "on",
        "g"
      ],
      [
        "f",
        "f"
      ],
      [
        "Ġd",
        "e"
      ],
      [
        "u",
        "l"
      ],
      [
        "ac",
        "e"
      ],
      [
        "Y",
        "ou"
      ],
      [
        "o",
        "y"
      ],
      [
        "Ġth",
        "is"
      ],
      [
        "Ġo",
        "ver"
      ],
      [
        "er",
        "s"
      ],
      [
        "le",
        "y"
      ],
      [
        "k",
        "ed"
      ],
      [
        "s",
        "s"
      ],
      [
        "Ġw",
        "ould"
      ],
      [
        "Ġthe",
        "re"
      ],
      [
        "h",
        "at"
      ],
      [
        "Ġs",
        "u"
      ],
      [
        "i",
        "g"
      ],
      [
        "Ġkn",
        "ow"
      ],
      [
        "n",
        "a"
      ],
      [
        "ĠâĢ",
        "Ķ"
      ],
      [
        "Ġthe",
        "ir"
      ],
      [
        "e",
        "p"
      ],
      [
        "Ġp",
        "o"
      ],
      [
        "o",
        "ld"
      ],
      [
        "Ġab",
        "out"
      ],
      [
        "Ġd",
        "own"
      ],
      [
        "Ġof",
        "f"
      ],
      [
        "Ġan",
        "y"
      ],
      [
        "v",
        "en"
      ],
      [
        "t",
        "her"
      ],
      [
        "Ġ",
        "N"
      ],
      [
        "Ġc",
        "h"
      ],
      [
        "e",
        "l"
      ],
      [
        "Ġon",
        "e"
      ],
      [
        "Ġag",
        "ain"
      ],
      [
        "Ġli",
        "ke"
      ],
      [
        "w",
        "ay"
      ],
      [
        "ur",
        "n"
      ],
      [
        "Ġlook",
        "ed"
      ],
      [
        "Ġs",
        "p"
      ],
      [
        "Ġ",
        "."
      ],
      [
        "Ġ",
        "qu"
      ],
      [
        "t",
        "ing"
      ],
      [
        "Ġn",
        "ow"
      ],
      [
        "ic",
        "k"
      ],
      [
        "Ġc",
        "on"
      ],
      [
        "Ġ",
        "us"
      ],
      [
        "Ġyou",
        "r"
      ],
      [
        "as",
        "s"
      ],
      [
        "Ġu",
        "n"
      ],
      [
        "o",
        "p"
      ],
      [
        "i",
        "z"
      ],
      [
        "Ġa",
        "round"
      ],
      [
        "Ġha",
        "nd"
      ],
      [
        "im",
        "e"
      ],
      [
        "all",
        "y"
      ],
      [
        "Ġe",
        "y"
      ],
      [
        "i",
        "e"
      ],
      [
        "ĠW",
        "e"
      ],
      [
        "u",
        "ll"
      ],
      [
        "a",
        "re"
      ],
      [
        "Ġb",
        "y"
      ],
      [
        "Ġw",
        "or"
      ],
      [
        "Ġth",
        "ink"
      ],
      [
        "a",
        "p"
      ],
      [
        "f",
        "ess"
      ],
      [
        "ĠM",
        "r"
      ],
      [
        "Ġg",
        "ot"
      ],
      [
        "Ġj",
        "ust"
      ],
      [
        "ĠP",
        "ro"
      ],
      [
        "?",
        "'"
      ],
      [
        "e",
        "red"
      ],
      [
        "fess",
        "or"
      ],
      [
        "Ġthe",
        "n"
      ],
      [
        "Ġc",
        "an"
      ],
      [
        "a",
        "ke"
      ],
      [
        "ar",
        "k"
      ],
      [
        "ag",
        "rid"
      ],
      [
        "Ġto",
        "o"
      ],
      [
        "ri",
        "ght"
      ],
      [
        "Ġa",
        "re"
      ],
      [
        "Ġb",
        "l"
      ],
      [
        "Ġs",
        "c"
      ],
      [
        "es",
        "t"
      ],
      [
        "Ġse",
        "e"
      ],
      [
        "w",
        "ard"
      ],
      [
        "Ġg",
        "et"
      ],
      [
        "Ġ",
        "if"
      ],
      [
        "re",
        "at"
      ],
      [
        "Ġ",
        "V"
      ],
      [
        "Ġp",
        "l"
      ],
      [
        "Ġwhe",
        "n"
      ],
      [
        "Ġc",
        "l"
      ],
      [
        "ĠH",
        "agrid"
      ],
      [
        "Ġm",
        "ore"
      ],
      [
        "Ġs",
        "l"
      ],
      [
        "u",
        "p"
      ],
      [
        "Ġ",
        "very"
      ],
      [
        "e",
        "ar"
      ],
      [
        "ĠâĢ",
        "ĵ"
      ],
      [
        "Ġm",
        "y"
      ],
      [
        "ĠPro",
        "fessor"
      ],
      [
        "b",
        "b"
      ],
      [
        "Ġw",
        "and"
      ],
      [
        "Ġo",
        "r"
      ],
      [
        "Ġ",
        "O"
      ],
      [
        "na",
        "pe"
      ],
      [
        "am",
        "e"
      ],
      [
        "Ġm",
        "o"
      ],
      [
        "i",
        "ve"
      ],
      [
        "Ġ",
        "E"
      ],
      [
        "Ġhe",
        "ad"
      ],
      [
        "Ġc",
        "om"
      ],
      [
        "o",
        "g"
      ],
      [
        "ĠS",
        "nape"
      ],
      [
        "Ġthou",
        "gh"
      ],
      [
        "se",
        "lf"
      ],
      [
        "at",
        "e"
      ],
      [
        "as",
        "ley"
      ],
      [
        "Ġt",
        "w"
      ],
      [
        "an",
        "g"
      ],
      [
        "Ġt",
        "ime"
      ],
      [
        "Ġs",
        "m"
      ],
      [
        "ĠWe",
        "asley"
      ],
      [
        "Ġdo",
        "or"
      ],
      [
        "pp",
        "ed"
      ],
      [
        "ou",
        "nd"
      ],
      [
        "ĠI",
        "t"
      ],
      [
        "Ġst",
        "ill"
      ],
      [
        "rou",
        "gh"
      ],
      [
        "Ġh",
        "ow"
      ],
      [
        "v",
        "ed"
      ],
      [
        "Ġv",
        "o"
      ],
      [
        "on",
        "d"
      ],
      [
        "at",
        "ion"
      ],
      [
        "a",
        "red"
      ],
      [
        "Ġey",
        "es"
      ],
      [
        "ĠâĢ",
        "¦"
      ],
      [
        "Ġt",
        "r"
      ],
      [
        "or",
        "n"
      ],
      [
        "v",
        "ing"
      ],
      [
        "Ġd",
        "on"
      ],
      [
        "Ġlook",
        "ing"
      ],
      [
        "Ġt",
        "urn"
      ],
      [
        "i",
        "us"
      ],
      [
        "a",
        "ir"
      ],
      [
        "Ġth",
        "an"
      ],
      [
        "ic",
        "h"
      ],
      [
        "Ġf",
        "ace"
      ],
      [
        "Ġs",
        "ome"
      ],
      [
        "Ġg",
        "l"
      ],
      [
        "Ġth",
        "rough"
      ],
      [
        "f",
        "ore"
      ],
      [
        ".",
        "'"
      ],
      [
        "Ġa",
        "r"
      ],
      [
        "it",
        "e"
      ],
      [
        "nd",
        "er"
      ],
      [
        "Ġ",
        "right"
      ],
      [
        "at",
        "h"
      ],
      [
        "u",
        "re"
      ],
      [
        "i",
        "ly"
      ],
      [
        "Ġo",
        "ther"
      ],
      [
        "Ġgo",
        "ing"
      ],
      [
        "al",
        "f"
      ],
      [
        "Ġvo",
        "ice"
      ],
      [
        "a",
        "u"
      ],
      [
        "Ġse",
        "em"
      ],
      [
        "in",
        "n"
      ],
      [
        "p",
        "t"
      ],
      [
        "g",
        "g"
      ],
      [
        "a",
        "ve"
      ],
      [
        "i",
        "ous"
      ],
      [
        "Ġwh",
        "ich"
      ],
      [
        "t",
        "le"
      ],
      [
        "ĠThe",
        "y"
      ],
      [
        "re",
        "e"
      ],
      [
        "en",
        "ed"
      ],
      [
        "Ġs",
        "w"
      ],
      [
        "Ġg",
        "r"
      ],
      [
        "i",
        "re"
      ],
      [
        "Ġsa",
        "y"
      ],
      [
        "Ġbe",
        "fore"
      ],
      [
        "Ġf",
        "l"
      ],
      [
        "Ġthou",
        "ght"
      ],
      [
        "ot",
        "her"
      ],
      [
        "o",
        "l"
      ],
      [
        "Ġ",
        "U"
      ],
      [
        "a",
        "us"
      ],
      [
        "f",
        "ter"
      ],
      [
        "Ġe",
        "very"
      ],
      [
        "alf",
        "oy"
      ],
      [
        ",",
        "âĢĻ"
      ],
      [
        "ĠP",
        "ot"
      ],
      [
        "a",
        "ble"
      ],
      [
        "om",
        "et"
      ],
      [
        "l",
        "ing"
      ],
      [
        "Ġdid",
        "n"
      ],
      [
        "Ġm",
        "an"
      ],
      [
        "Ġ",
        "en"
      ],
      [
        "Ġw",
        "ill"
      ],
      [
        "Ġhe",
        "re"
      ],
      [
        "ĠM",
        "alfoy"
      ],
      [
        "w",
        "n"
      ],
      [
        "Ġro",
        "om"
      ],
      [
        "t",
        "h"
      ],
      [
        "Ġc",
        "lo"
      ],
      [
        "id",
        "d"
      ],
      [
        "c",
        "hed"
      ],
      [
        "ak",
        "ing"
      ],
      [
        "a",
        "b"
      ],
      [
        "ad",
        "e"
      ],
      [
        "Ġo",
        "p"
      ],
      [
        "or",
        "m"
      ],
      [
        "f",
        "t"
      ],
      [
        "Ġl",
        "ong"
      ],
      [
        "o",
        "d"
      ],
      [
        "Ġp",
        "re"
      ],
      [
        "s",
        "ide"
      ],
      [
        "Ġ",
        "K"
      ],
      [
        "i",
        "le"
      ],
      [
        "Ġon",
        "ly"
      ],
      [
        "Ġ",
        "im"
      ],
      [
        "!",
        "'"
      ],
      [
        "W",
        "hat"
      ],
      [
        "em",
        "ort"
      ],
      [
        "old",
        "emort"
      ],
      [
        "Ġw",
        "at"
      ],
      [
        "Ġt",
        "e"
      ],
      [
        "ar",
        "ing"
      ],
      [
        "h",
        "o"
      ],
      [
        "k",
        "ing"
      ],
      [
        "omet",
        "hing"
      ],
      [
        "Ġsa",
        "w"
      ],
      [
        "t",
        "s"
      ],
      [
        "T",
        "he"
      ],
      [
        "Ġu",
        "nder"
      ],
      [
        "Ġd",
        "is"
      ],
      [
        "ĠV",
        "oldemort"
      ],
      [
        "Ġbe",
        "h"
      ],
      [
        "Ġw",
        "ant"
      ],
      [
        "Ġp",
        "e"
      ],
      [
        "Ġha",
        "pp"
      ],
      [
        "Ġt",
        "ell"
      ],
      [
        "Ġkn",
        "e"
      ],
      [
        "Ġw",
        "ay"
      ],
      [
        "Ġwhe",
        "re"
      ],
      [
        "ag",
        "e"
      ],
      [
        "r",
        "ow"
      ],
      [
        "Ġa",
        "fter"
      ],
      [
        "ri",
        "ed"
      ],
      [
        "at",
        "her"
      ],
      [
        "s",
        "ed"
      ],
      [
        "iz",
        "ard"
      ],
      [
        "v",
        "es"
      ],
      [
        "Ġ",
        "ke"
      ],
      [
        "t",
        "e"
      ],
      [
        "Ġm",
        "u"
      ],
      [
        "m",
        "ent"
      ],
      [
        "Ġbe",
        "c"
      ],
      [
        "ir",
        "ius"
      ],
      [
        "Ġa",
        "pp"
      ],
      [
        "Ġseem",
        "ed"
      ],
      [
        "t",
        "hing"
      ],
      [
        "Ġl",
        "o"
      ],
      [
        "Ġa",
        "way"
      ],
      [
        "Ġs",
        "omething"
      ],
      [
        "Ġhim",
        "self"
      ],
      [
        "Ġf",
        "ir"
      ],
      [
        "Ġl",
        "et"
      ],
      [
        "Ġl",
        "it"
      ],
      [
        "ĠA",
        "nd"
      ],
      [
        "Ġbe",
        "t"
      ],
      [
        "Ġbeh",
        "ind"
      ],
      [
        "ĠPot",
        "ter"
      ],
      [
        "Ġe",
        "ven"
      ],
      [
        "Ġas",
        "ked"
      ],
      [
        "ĠS",
        "he"
      ],
      [
        "aus",
        "e"
      ],
      [
        "Ġre",
        "m"
      ],
      [
        "m",
        "b"
      ],
      [
        "Ġs",
        "pe"
      ],
      [
        "e",
        "ct"
      ],
      [
        "I",
        "t"
      ],
      [
        "Ġto",
        "ld"
      ],
      [
        "Ġturn",
        "ed"
      ],
      [
        "e",
        "ver"
      ],
      [
        "Ġb",
        "r"
      ],
      [
        "ĠS",
        "irius"
      ],
      [
        "k",
        "s"
      ],
      [
        "at",
        "ed"
      ],
      [
        "Ġto",
        "ward"
      ],
      [
        "Ġne",
        "ver"
      ],
      [
        "Ġl",
        "ast"
      ],
      [
        "Ġc",
        "ome"
      ],
      [
        "l",
        "t"
      ],
      [
        "Ġa",
        "c"
      ],
      [
        "ĠH",
        "og"
      ],
      [
        "ĠB",
        "ut"
      ],
      [
        "Ġpo",
        "in"
      ],
      [
        "ĠD",
        "e"
      ],
      [
        "ac",
        "t"
      ],
      [
        "Ġth",
        "ing"
      ],
      [
        "Ġp",
        "ro"
      ],
      [
        "Ġm",
        "om"
      ],
      [
        "ag",
        "ic"
      ],
      [
        "in",
        "e"
      ],
      [
        "Ġmom",
        "ent"
      ],
      [
        "an",
        "ce"
      ],
      [
        "Ġmu",
        "ch"
      ],
      [
        "H",
        "e"
      ],
      [
        "Ġt",
        "ry"
      ],
      [
        "o",
        "ll"
      ],
      [
        "ac",
        "h"
      ],
      [
        "oo",
        "l"
      ],
      [
        "d",
        "d"
      ],
      [
        "Ġkne",
        "w"
      ],
      [
        "u",
        "ff"
      ],
      [
        "'",
        "ve"
      ],
      [
        "u",
        "e"
      ],
      [
        "Ġsh",
        "ould"
      ],
      [
        "re",
        "ss"
      ],
      [
        "op",
        "le"
      ],
      [
        "i",
        "ed"
      ],
      [
        "ch",
        "ing"
      ],
      [
        "er",
        "ing"
      ],
      [
        "or",
        "d"
      ],
      [
        "Ġon",
        "ce"
      ],
      [
        "ĠC",
        "h"
      ],
      [
        "Ġlit",
        "tle"
      ],
      [
        "ĠThe",
        "re"
      ],
      [
        "?",
        "âĢĻ"
      ],
      [
        "'",
        "re"
      ],
      [
        "Ġfir",
        "st"
      ],
      [
        "Ġs",
        "il"
      ],
      [
        "art",
        "s"
      ],
      [
        "W",
        "ell"
      ],
      [
        "Ġy",
        "ear"
      ],
      [
        "Ġ",
        "You"
      ],
      [
        "f",
        "ul"
      ],
      [
        "Ġse",
        "c"
      ],
      [
        "u",
        "gg"
      ],
      [
        "Ġh",
        "as"
      ],
      [
        "Ġm",
        "ade"
      ],
      [
        "Ġhe",
        "ard"
      ],
      [
        "n",
        "t"
      ],
      [
        "Ġle",
        "ft"
      ],
      [
        "Ġp",
        "r"
      ],
      [
        "Ġtw",
        "o"
      ],
      [
        "on",
        "t"
      ],
      [
        "p",
        "ed"
      ],
      [
        "od",
        "y"
      ],
      [
        "ĠM",
        "in"
      ],
      [
        "W",
        "e"
      ],
      [
        "Ġb",
        "ot"
      ],
      [
        "Ġw",
        "a"
      ],
      [
        "is",
        "h"
      ],
      [
        "as",
        "e"
      ],
      [
        "is",
        "e"
      ],
      [
        "Ġg",
        "ood"
      ],
      [
        "ĠF",
        "red"
      ],
      [
        "Ġfe",
        "lt"
      ],
      [
        "B",
        "ut"
      ],
      [
        "w",
        "arts"
      ],
      [
        "ĠMr",
        "s"
      ],
      [
        "u",
        "ck"
      ],
      [
        "l",
        "es"
      ],
      [
        "Ġw",
        "izard"
      ],
      [
        "Ġd",
        "es"
      ],
      [
        "ow",
        "ed"
      ],
      [
        "Ġpe",
        "ople"
      ],
      [
        "!",
        "âĢĻ"
      ],
      [
        "ĠN",
        "e"
      ],
      [
        "Ġcon",
        "t"
      ],
      [
        "it",
        "ch"
      ],
      [
        "p",
        "le"
      ],
      [
        "N",
        "o"
      ],
      [
        "b",
        "er"
      ],
      [
        "ĠHog",
        "warts"
      ],
      [
        "ad",
        "y"
      ],
      [
        "Ġh",
        "o"
      ],
      [
        "Ġit",
        "s"
      ],
      [
        "Ġp",
        "ull"
      ],
      [
        "Ġre",
        "ally"
      ],
      [
        "Ġd",
        "ark"
      ],
      [
        "Ġwe",
        "ll"
      ],
      [
        "ro",
        "om"
      ],
      [
        "en",
        "ce"
      ],
      [
        "Ġm",
        "ight"
      ],
      [
        "Ġat",
        "t"
      ],
      [
        "is",
        "ed"
      ],
      [
        "ro",
        "ss"
      ],
      [
        "i",
        "es"
      ],
      [
        "ud",
        "d"
      ],
      [
        "Ġt",
        "al"
      ],
      [
        "Ġar",
        "m"
      ],
      [
        "he",
        "n"
      ],
      [
        "Ġs",
        "n"
      ],
      [
        "l",
        "ess"
      ],
      [
        "ion",
        "s"
      ],
      [
        "Ġw",
        "al"
      ],
      [
        "ou",
        "gh"
      ],
      [
        "Ġf",
        "lo"
      ],
      [
        "or",
        "y"
      ],
      [
        "x",
        "t"
      ],
      [
        "ill",
        "e"
      ],
      [
        "p",
        "er"
      ],
      [
        "up",
        "in"
      ],
      [
        "o",
        "ck"
      ],
      [
        "ri",
        "e"
      ],
      [
        "Ġne",
        "ed"
      ],
      [
        "Ġe",
        "ver"
      ],
      [
        "Ġst",
        "r"
      ],
      [
        "Ġfr",
        "ont"
      ],
      [
        "ĠM",
        "c"
      ],
      [
        "ĠL",
        "upin"
      ],
      [
        "inn",
        "y"
      ],
      [
        "a",
        "h"
      ],
      [
        "Ġw",
        "ind"
      ],
      [
        "Ġa",
        "m"
      ],
      [
        "Ġfe",
        "el"
      ],
      [
        "it",
        "y"
      ],
      [
        "Ġsu",
        "re"
      ],
      [
        "Q",
        "u"
      ],
      [
        "ou",
        "se"
      ],
      [
        "or",
        "s"
      ],
      [
        "Ġd",
        "r"
      ],
      [
        "e",
        "or"
      ],
      [
        "o",
        "se"
      ],
      [
        "O",
        "h"
      ],
      [
        "eor",
        "ge"
      ],
      [
        "Ġc",
        "he"
      ],
      [
        "ou",
        "d"
      ],
      [
        "Ġop",
        "en"
      ],
      [
        "ĠT",
        "h"
      ],
      [
        "v",
        "ille"
      ],
      [
        "ar",
        "m"
      ],
      [
        "ĠG",
        "eorge"
      ],
      [
        "Ġm",
        "ust"
      ],
      [
        "Ġc",
        "r"
      ],
      [
        "âĢ¦",
        "âĢĿ"
      ],
      [
        "Ġme",
        "an"
      ],
      [
        "'",
        "ll"
      ],
      [
        "ar",
        "ge"
      ],
      [
        "Ġo",
        "ld"
      ],
      [
        "m",
        "e"
      ],
      [
        "he",
        "re"
      ],
      [
        "un",
        "g"
      ],
      [
        "A",
        "nd"
      ],
      [
        "p",
        "l"
      ],
      [
        "Ġc",
        "ame"
      ],
      [
        "ig",
        "n"
      ],
      [
        "c",
        "ed"
      ],
      [
        "Ġfe",
        "et"
      ],
      [
        "on",
        "s"
      ],
      [
        "c",
        "y"
      ],
      [
        "Ġh",
        "ur"
      ],
      [
        "Ġbe",
        "l"
      ],
      [
        "ĠNe",
        "ville"
      ],
      [
        "Ġp",
        "ass"
      ],
      [
        "Ġim",
        "p"
      ],
      [
        "Ġbec",
        "ause"
      ],
      [
        "re",
        "am"
      ],
      [
        "Ġp",
        "ut"
      ],
      [
        "ag",
        "all"
      ],
      [
        "G",
        "on"
      ],
      [
        "Gon",
        "agall"
      ],
      [
        "ĠG",
        "inny"
      ],
      [
        "Ġo",
        "wn"
      ],
      [
        "ĠMc",
        "Gonagall"
      ],
      [
        "un",
        "n"
      ],
      [
        "re",
        "w"
      ],
      [
        "Ġe",
        "nd"
      ],
      [
        "Ġ",
        "Qu"
      ],
      [
        "Ġf",
        "ind"
      ],
      [
        "Ġs",
        "ur"
      ],
      [
        "Ġc",
        "le"
      ],
      [
        "e",
        "ah"
      ],
      [
        "Ġ",
        "ent"
      ],
      [
        "Ġt",
        "er"
      ],
      [
        "an",
        "ted"
      ],
      [
        "Ġtoo",
        "k"
      ],
      [
        "Ġd",
        "ay"
      ],
      [
        "our",
        "se"
      ],
      [
        "b",
        "e"
      ],
      [
        "Ġb",
        "it"
      ],
      [
        "Ġfe",
        "w"
      ],
      [
        "Ġany",
        "thing"
      ],
      [
        "Ġg",
        "reat"
      ],
      [
        "Ġsu",
        "pp"
      ],
      [
        "Ġb",
        "ed"
      ],
      [
        "Ġh",
        "ard"
      ],
      [
        "Ġhe",
        "l"
      ],
      [
        "Ġst",
        "and"
      ],
      [
        "Ġtry",
        "ing"
      ],
      [
        "Ġt",
        "ake"
      ],
      [
        "ch",
        "ool"
      ],
      [
        "Ġt",
        "able"
      ],
      [
        "Ġm",
        "ake"
      ],
      [
        "is",
        "hed"
      ],
      [
        "ent",
        "s"
      ],
      [
        "at",
        "er"
      ],
      [
        "Ġw",
        "r"
      ],
      [
        "Ġl",
        "ight"
      ],
      [
        "ry",
        "ff"
      ],
      [
        "ĠI",
        "n"
      ],
      [
        ".",
        "âĢĻ"
      ],
      [
        "Ġw",
        "ent"
      ],
      [
        "Ġg",
        "i"
      ],
      [
        "an",
        "k"
      ],
      [
        "ryff",
        "ind"
      ],
      [
        "if",
        "f"
      ],
      [
        "he",
        "s"
      ],
      [
        "o",
        "st"
      ],
      [
        "Ġsec",
        "ond"
      ],
      [
        "er",
        "n"
      ],
      [
        "w",
        "e"
      ],
      [
        "Ġwor",
        "d"
      ],
      [
        "Ġan",
        "other"
      ],
      [
        "Ġne",
        "xt"
      ],
      [
        "rid",
        "ge"
      ],
      [
        "ĠG",
        "ryffind"
      ],
      [
        "ĠâĢĶ",
        "âĢĿ"
      ],
      [
        "Ġhand",
        "s"
      ],
      [
        "Ġflo",
        "or"
      ],
      [
        "Ġke",
        "ep"
      ],
      [
        "'",
        "d"
      ],
      [
        "Ġc",
        "ur"
      ],
      [
        "Ġn",
        "ight"
      ],
      [
        "Ġs",
        "ide"
      ],
      [
        "Ġs",
        "chool"
      ],
      [
        "'",
        "m"
      ],
      [
        "Ġin",
        "side"
      ],
      [
        "o",
        "ve"
      ],
      [
        "ar",
        "ly"
      ],
      [
        "o",
        "ot"
      ],
      [
        "i",
        "et"
      ],
      [
        "Ġwh",
        "ile"
      ],
      [
        "ious",
        "ly"
      ],
      [
        "Ġb",
        "oy"
      ],
      [
        "Ġs",
        "ound"
      ],
      [
        "ull",
        "y"
      ],
      [
        "Ġl",
        "arge"
      ],
      [
        "Ġne",
        "w"
      ],
      [
        "Ġe",
        "m"
      ],
      [
        "Ġr",
        "a"
      ],
      [
        "c",
        "le"
      ],
      [
        "t",
        "ered"
      ],
      [
        "Ġf",
        "ound"
      ],
      [
        "Ġwh",
        "is"
      ],
      [
        "Ġc",
        "all"
      ],
      [
        "mb",
        "ridge"
      ],
      [
        "b",
        "ody"
      ],
      [
        "e",
        "e"
      ],
      [
        "Ġwind",
        "ow"
      ],
      [
        "Ġl",
        "au"
      ],
      [
        "Ġbl",
        "ack"
      ],
      [
        "ĠB",
        "l"
      ],
      [
        "Ġth",
        "ree"
      ],
      [
        "Ġs",
        "et"
      ],
      [
        "Ġh",
        "ouse"
      ],
      [
        "Ġl",
        "oud"
      ],
      [
        "Y",
        "es"
      ],
      [
        "ac",
        "her"
      ],
      [
        "g",
        "et"
      ],
      [
        "t",
        "y"
      ],
      [
        "Ġe",
        "l"
      ],
      [
        "H",
        "arry"
      ],
      [
        "a",
        "z"
      ],
      [
        "a",
        "pp"
      ],
      [
        "s",
        "h"
      ],
      [
        "ĠU",
        "mbridge"
      ],
      [
        "n",
        "e"
      ],
      [
        "Ġha",
        "ir"
      ],
      [
        "Ġre",
        "t"
      ],
      [
        "i",
        "x"
      ],
      [
        "em",
        "ent"
      ],
      [
        "i",
        "p"
      ],
      [
        "Ġs",
        "it"
      ],
      [
        "ar",
        "y"
      ],
      [
        "Ġp",
        "er"
      ],
      [
        "Ġse",
        "en"
      ],
      [
        "ist",
        "ry"
      ],
      [
        "Ġc",
        "ourse"
      ],
      [
        "Ġg",
        "ave"
      ],
      [
        "ĠDe",
        "ath"
      ],
      [
        "Ġg",
        "round"
      ],
      [
        "Ġnot",
        "hing"
      ],
      [
        "Ġhel",
        "p"
      ],
      [
        "Ġ",
        "J"
      ],
      [
        "Ġhe",
        "ar"
      ],
      [
        "Ġst",
        "ood"
      ],
      [
        "i",
        "ld"
      ],
      [
        "ĠMin",
        "istry"
      ],
      [
        "b",
        "l"
      ],
      [
        "a",
        "il"
      ],
      [
        "ĠGryffind",
        "or"
      ],
      [
        "at",
        "ing"
      ],
      [
        "h",
        "y"
      ],
      [
        "ĠS",
        "t"
      ],
      [
        "udd",
        "en"
      ],
      [
        "Ġf",
        "in"
      ],
      [
        "Ġre",
        "al"
      ],
      [
        "Ġj",
        "o"
      ],
      [
        "a",
        "w"
      ],
      [
        "Ġha",
        "lf"
      ],
      [
        "Ġwh",
        "y"
      ],
      [
        "air",
        "s"
      ],
      [
        "i",
        "gh"
      ],
      [
        "Ġs",
        "k"
      ],
      [
        "Ġa",
        "ir"
      ],
      [
        "Ġpull",
        "ed"
      ],
      [
        "Ġb",
        "ook"
      ],
      [
        "Ġs",
        "udden"
      ],
      [
        "is",
        "s"
      ],
      [
        "Ġ",
        "our"
      ],
      [
        "ight",
        "ly"
      ],
      [
        "Ġw",
        "all"
      ],
      [
        "ĠU",
        "n"
      ],
      [
        "Ġm",
        "at"
      ],
      [
        "Ġup",
        "on"
      ],
      [
        "ow",
        "er"
      ],
      [
        "Y",
        "eah"
      ],
      [
        "n",
        "ess"
      ],
      [
        "Ġ",
        "`"
      ],
      [
        "ĠD",
        "o"
      ],
      [
        "Ġsh",
        "out"
      ],
      [
        "a",
        "v"
      ],
      [
        "Ġc",
        "ast"
      ],
      [
        "Ġl",
        "if"
      ],
      [
        "ac",
        "hed"
      ],
      [
        "ood",
        "y"
      ],
      [
        "Ġw",
        "anted"
      ],
      [
        "Ġac",
        "ross"
      ],
      [
        "Ġs",
        "at"
      ],
      [
        "Ġbe",
        "g"
      ],
      [
        "bb",
        "y"
      ],
      [
        "an",
        "s"
      ],
      [
        "Ġbe",
        "ing"
      ],
      [
        "Ġe",
        "ach"
      ],
      [
        "Ġ-",
        "'"
      ],
      [
        "Ġfe",
        "ll"
      ],
      [
        "Ġqu",
        "ick"
      ],
      [
        "Ġwa",
        "it"
      ],
      [
        "Ġs",
        "qu"
      ],
      [
        "Ġf",
        "ire"
      ],
      [
        "Ġpl",
        "ace"
      ],
      [
        "ud",
        "ge"
      ],
      [
        "way",
        "s"
      ],
      [
        "Ġwas",
        "n"
      ],
      [
        "um",
        "p"
      ],
      [
        "Ġst",
        "ud"
      ],
      [
        "Ġf",
        "oll"
      ],
      [
        "i",
        "ble"
      ],
      [
        "ent",
        "ly"
      ],
      [
        "Ġmo",
        "st"
      ],
      [
        "Ġbot",
        "h"
      ],
      [
        "ĠH",
        "is"
      ],
      [
        "Ġwith",
        "out"
      ],
      [
        "un",
        "t"
      ],
      [
        "n",
        "g"
      ],
      [
        "ing",
        "s"
      ],
      [
        "Ġc",
        "or"
      ],
      [
        "Ġqu",
        "iet"
      ],
      [
        "ĠM",
        "ad"
      ],
      [
        "Ġal",
        "ong"
      ],
      [
        "Ġd",
        "one"
      ],
      [
        "o",
        "s"
      ],
      [
        "Ġdo",
        "es"
      ],
      [
        "ar",
        "s"
      ],
      [
        "Ġcl",
        "ass"
      ],
      [
        "is",
        "ter"
      ],
      [
        "Ġsm",
        "all"
      ],
      [
        "Ġhapp",
        "ened"
      ],
      [
        "Ġm",
        "ind"
      ],
      [
        "Ġcould",
        "n"
      ],
      [
        "Ġagain",
        "st"
      ],
      [
        "ĠD",
        "ark"
      ],
      [
        "r",
        "u"
      ],
      [
        "ar",
        "ted"
      ],
      [
        "Ġqu",
        "ite"
      ],
      [
        "f",
        "ully"
      ],
      [
        "Ġan",
        "g"
      ],
      [
        "en",
        "ing"
      ],
      [
        "Ġdo",
        "ing"
      ],
      [
        "out",
        "h"
      ],
      [
        "Ġbet",
        "ter"
      ],
      [
        "rie",
        "nd"
      ],
      [
        "Ġm",
        "agic"
      ],
      [
        "as",
        "ter"
      ],
      [
        "in",
        "s"
      ],
      [
        "Ġc",
        "are"
      ],
      [
        ".",
        "."
      ],
      [
        "ow",
        "ing"
      ],
      [
        "c",
        "ted"
      ],
      [
        "ĠP",
        "er"
      ],
      [
        "Ġun",
        "t"
      ],
      [
        "i",
        "b"
      ],
      [
        "r",
        "ic"
      ],
      [
        "ern",
        "on"
      ],
      [
        "l",
        "i"
      ],
      [
        "pe",
        "red"
      ],
      [
        "il",
        "ing"
      ],
      [
        "ĠThe",
        "n"
      ],
      [
        "y",
        "ing"
      ],
      [
        "Ġb",
        "reat"
      ],
      [
        "Ġen",
        "ough"
      ],
      [
        "l",
        "u"
      ],
      [
        "Ġst",
        "e"
      ],
      [
        "Ġel",
        "se"
      ],
      [
        "e",
        "h"
      ],
      [
        "e",
        "y"
      ],
      [
        "Ġex",
        "pe"
      ],
      [
        "ĠV",
        "ernon"
      ],
      [
        "ĠM",
        "ugg"
      ],
      [
        "b",
        "es"
      ],
      [
        "ĠM",
        "oody"
      ],
      [
        "Ġey",
        "e"
      ],
      [
        "Ġp",
        "le"
      ],
      [
        "iz",
        "ed"
      ],
      [
        "in",
        "ed"
      ],
      [
        "Ġf",
        "am"
      ],
      [
        "ĠM",
        "agic"
      ],
      [
        "Ġk",
        "ill"
      ],
      [
        "Ġm",
        "outh"
      ],
      [
        "re",
        "ady"
      ],
      [
        "ĠH",
        "all"
      ],
      [
        "t",
        "ain"
      ],
      [
        "Ġh",
        "old"
      ],
      [
        "am",
        "p"
      ],
      [
        "t",
        "en"
      ],
      [
        "Ġm",
        "ut"
      ],
      [
        "Ġl",
        "ess"
      ],
      [
        "Ġg",
        "re"
      ],
      [
        "ur",
        "s"
      ],
      [
        "Ġc",
        "au"
      ],
      [
        "c",
        "l"
      ],
      [
        "u",
        "nd"
      ],
      [
        "re",
        "t"
      ],
      [
        "Ġal",
        "ready"
      ],
      [
        "p",
        "r"
      ],
      [
        "Ġm",
        "in"
      ],
      [
        "Ġre",
        "s"
      ],
      [
        "ĠA",
        "s"
      ],
      [
        "Ġy",
        "ell"
      ],
      [
        "Ġyear",
        "s"
      ],
      [
        "Ġwal",
        "ked"
      ],
      [
        "ly",
        "ther"
      ],
      [
        "Ġro",
        "bes"
      ],
      [
        "a",
        "wn"
      ],
      [
        "re",
        "ak"
      ],
      [
        "Ġrem",
        "em"
      ],
      [
        "i",
        "a"
      ],
      [
        "ar",
        "n"
      ],
      [
        "Ġst",
        "aring"
      ],
      [
        "Ġbel",
        "ie"
      ],
      [
        "Ġf",
        "riend"
      ],
      [
        "ĠUn",
        "cle"
      ],
      [
        "ĠF",
        "udge"
      ],
      [
        "S",
        "o"
      ],
      [
        "Ġp",
        "ast"
      ],
      [
        "Ġp",
        "art"
      ],
      [
        "e",
        "ared"
      ],
      [
        "Ġb",
        "o"
      ],
      [
        "Ġd",
        "iff"
      ],
      [
        "ĠP",
        "et"
      ],
      [
        "in",
        "ce"
      ],
      [
        "Ġfor",
        "ward"
      ],
      [
        "Ġgo",
        "ld"
      ],
      [
        "Ġre",
        "ad"
      ],
      [
        "idd",
        "le"
      ],
      [
        "f",
        "orm"
      ],
      [
        "ĠS",
        "lyther"
      ],
      [
        "Ġre",
        "st"
      ],
      [
        "ang",
        "er"
      ],
      [
        "ab",
        "ly"
      ],
      [
        "Ġt",
        "re"
      ],
      [
        "Ġto",
        "p"
      ],
      [
        "pp",
        "ing"
      ],
      [
        "we",
        "en"
      ],
      [
        "W",
        "ho"
      ],
      [
        "Ġth",
        "ose"
      ],
      [
        "Ġr",
        "ather"
      ],
      [
        "Ġg",
        "one"
      ],
      [
        "Ġwhis",
        "pered"
      ],
      [
        "Ġw",
        "on"
      ],
      [
        "ain",
        "ed"
      ],
      [
        "Ġbet",
        "ween"
      ],
      [
        "Ġret",
        "urn"
      ],
      [
        "ĠA",
        "r"
      ],
      [
        "Ġs",
        "na"
      ],
      [
        "Ġsudden",
        "ly"
      ],
      [
        "Ġthe",
        "se"
      ],
      [
        "Ġstand",
        "ing"
      ],
      [
        "g",
        "ed"
      ],
      [
        "m",
        "ost"
      ],
      [
        "Ġsc",
        "ar"
      ],
      [
        "Ġo",
        "b"
      ],
      [
        "dd",
        "ed"
      ],
      [
        "Ġin",
        "st"
      ],
      [
        "Ġunt",
        "il"
      ],
      [
        "Ġbeg",
        "an"
      ],
      [
        "ud",
        "ley"
      ],
      [
        "Ġc",
        "ar"
      ],
      [
        "Ġg",
        "ive"
      ],
      [
        "Ġclo",
        "se"
      ],
      [
        "Ġman",
        "y"
      ],
      [
        "Ġop",
        "ened"
      ],
      [
        "Ġf",
        "ull"
      ],
      [
        "Ġre",
        "c"
      ],
      [
        "Ġtoward",
        "s"
      ],
      [
        "w",
        "l"
      ],
      [
        "Ġb",
        "ro"
      ],
      [
        "y",
        "ou"
      ],
      [
        "Ġt",
        "ried"
      ],
      [
        "Ġc",
        "old"
      ],
      [
        "an",
        "ge"
      ],
      [
        "Ġon",
        "to"
      ],
      [
        "Ġsl",
        "ightly"
      ],
      [
        "Ġl",
        "ist"
      ],
      [
        "Ġw",
        "ond"
      ],
      [
        "en",
        "s"
      ],
      [
        "Ġgl",
        "ass"
      ],
      [
        "ĠG",
        "r"
      ],
      [
        "idd",
        "itch"
      ],
      [
        "o",
        "ke"
      ],
      [
        "Ġst",
        "o"
      ],
      [
        "Ġsit",
        "ting"
      ],
      [
        "it",
        "her"
      ],
      [
        "Ġc",
        "ou"
      ],
      [
        "Ġquick",
        "ly"
      ],
      [
        "he",
        "ad"
      ],
      [
        "Ġy",
        "et"
      ],
      [
        "Ġd",
        "ro"
      ],
      [
        "Ġtal",
        "king"
      ],
      [
        "Ġthing",
        "s"
      ],
      [
        "Ġd",
        "ist"
      ],
      [
        "Ġsa",
        "me"
      ],
      [
        "Ġra",
        "ised"
      ],
      [
        "Ġst",
        "art"
      ],
      [
        "T",
        "hat"
      ],
      [
        "c",
        "hes"
      ],
      [
        "ĠS",
        "lu"
      ],
      [
        "ĠD",
        "udley"
      ],
      [
        "Ġcor",
        "rid"
      ],
      [
        "gh",
        "orn"
      ],
      [
        "Ġh",
        "or"
      ],
      [
        "Ġb",
        "ad"
      ],
      [
        "Ġoff",
        "ice"
      ],
      [
        "p",
        "h"
      ],
      [
        "Ġre",
        "ached"
      ],
      [
        "Ġmin",
        "ut"
      ],
      [
        "âĢ",
        "ľ"
      ],
      [
        "ĠQu",
        "idditch"
      ],
      [
        "Ġcast",
        "le"
      ],
      [
        "ir",
        "l"
      ],
      [
        "d",
        "ay"
      ],
      [
        "Ġst",
        "arted"
      ],
      [
        "ent",
        "ion"
      ],
      [
        "am",
        "es"
      ],
      [
        "ul",
        "t"
      ],
      [
        "Ġde",
        "ep"
      ],
      [
        "Ġcom",
        "m"
      ],
      [
        "ĠBl",
        "ack"
      ],
      [
        "ĠSlu",
        "ghorn"
      ],
      [
        "Ġwould",
        "n"
      ],
      [
        "Ġunder",
        "st"
      ],
      [
        "Ġa",
        "d"
      ],
      [
        "Ġa",
        "ble"
      ],
      [
        "ck",
        "et"
      ],
      [
        "H",
        "ow"
      ],
      [
        "o",
        "sed"
      ],
      [
        "ĠL",
        "ord"
      ],
      [
        "ĠA",
        "n"
      ],
      [
        "get",
        "her"
      ],
      [
        "v",
        "is"
      ],
      [
        "Ġf",
        "ore"
      ],
      [
        "ak",
        "en"
      ],
      [
        "Ġex",
        "p"
      ],
      [
        "ig",
        "g"
      ],
      [
        "Ġal",
        "most"
      ],
      [
        "T",
        "h"
      ],
      [
        "Ġc",
        "o"
      ],
      [
        "Ġp",
        "ain"
      ],
      [
        "ter",
        "ing"
      ],
      [
        "Ġsl",
        "ow"
      ],
      [
        "ĠPer",
        "cy"
      ],
      [
        "ĠS",
        "e"
      ],
      [
        "Ġal",
        "ways"
      ],
      [
        "l",
        "ves"
      ],
      [
        "Ġde",
        "ad"
      ],
      [
        "Ġshout",
        "ed"
      ],
      [
        "Ġ",
        "ide"
      ],
      [
        "at",
        "ers"
      ],
      [
        "Ġn",
        "ame"
      ],
      [
        "Ġst",
        "ra"
      ],
      [
        "Ġh",
        "igh"
      ],
      [
        "Ġany",
        "one"
      ],
      [
        "er",
        "v"
      ],
      [
        "Ġto",
        "gether"
      ],
      [
        "Ġcom",
        "ing"
      ],
      [
        "m",
        "ed"
      ],
      [
        "Ġwor",
        "k"
      ],
      [
        "Ġcall",
        "ed"
      ],
      [
        "u",
        "al"
      ],
      [
        "Ġin",
        "d"
      ],
      [
        "Ġf",
        "ather"
      ],
      [
        "Ġus",
        "e"
      ],
      [
        ".",
        "âĢ¦"
      ],
      [
        "i",
        "v"
      ],
      [
        "Ġm",
        "em"
      ],
      [
        "ate",
        "ly"
      ],
      [
        "ĠDo",
        "bby"
      ],
      [
        "Ġf",
        "ur"
      ],
      [
        "d",
        "er"
      ],
      [
        "r",
        "ac"
      ],
      [
        "u",
        "red"
      ],
      [
        "Ġl",
        "ater"
      ],
      [
        "Ġb",
        "es"
      ],
      [
        "Ġb",
        "room"
      ],
      [
        "Ġy",
        "eh"
      ],
      [
        "Ġh",
        "our"
      ],
      [
        "Ġf",
        "ing"
      ],
      [
        "ĠâĢĵ",
        "âĢĻ"
      ],
      [
        "Ġdr",
        "ag"
      ],
      [
        "Ġs",
        "le"
      ],
      [
        "r",
        "on"
      ],
      [
        "s",
        "w"
      ],
      [
        "Ġg",
        "irl"
      ],
      [
        "ĠW",
        "hat"
      ],
      [
        "Ġp",
        "ers"
      ],
      [
        "Ġst",
        "ared"
      ],
      [
        "Ġcont",
        "in"
      ],
      [
        "e",
        "re"
      ],
      [
        "Ġf",
        "oot"
      ],
      [
        "Ġsc",
        "ream"
      ],
      [
        "Ġpo",
        "ss"
      ],
      [
        "Ġf",
        "ar"
      ],
      [
        "Ġc",
        "row"
      ],
      [
        "Ġhow",
        "ever"
      ],
      [
        "c",
        "i"
      ],
      [
        "Ġf",
        "our"
      ],
      [
        "Ġg",
        "u"
      ],
      [
        "Ġde",
        "c"
      ],
      [
        "Ġfeel",
        "ing"
      ],
      [
        "Ġo",
        "wl"
      ],
      [
        "Ġm",
        "ar"
      ],
      [
        "Ġp",
        "ar"
      ],
      [
        "Ġwat",
        "ching"
      ],
      [
        "c",
        "us"
      ],
      [
        "un",
        "k"
      ],
      [
        "Ġquiet",
        "ly"
      ],
      [
        "Ġcrow",
        "d"
      ],
      [
        "it",
        "ed"
      ],
      [
        "Ġstud",
        "ents"
      ],
      [
        "ra",
        "w"
      ],
      [
        "Ġs",
        "ight"
      ],
      [
        "ou",
        "ght"
      ],
      [
        "ra",
        "bb"
      ],
      [
        "er",
        "y"
      ],
      [
        "Ġd",
        "et"
      ],
      [
        "ep",
        "s"
      ],
      [
        "Ġs",
        "ign"
      ],
      [
        "Ġl",
        "ot"
      ],
      [
        "u",
        "ed"
      ],
      [
        "ir",
        "d"
      ],
      [
        "Ġwho",
        "le"
      ],
      [
        "Ġm",
        "other"
      ],
      [
        "Ġv",
        "is"
      ],
      [
        "Ġle",
        "g"
      ],
      [
        "ĠE",
        "aters"
      ],
      [
        "Ġ",
        "Y"
      ],
      [
        "ac",
        "ed"
      ],
      [
        "Ġbes",
        "ide"
      ],
      [
        "or",
        "ry"
      ],
      [
        "ĠW",
        "hen"
      ],
      [
        "ap",
        "s"
      ],
      [
        "ĠâĢ¦",
        "âĢĻ"
      ],
      [
        "Ġlet",
        "ter"
      ],
      [
        "en",
        "se"
      ],
      [
        "Ġl",
        "ow"
      ],
      [
        "Ġwe",
        "e"
      ],
      [
        "Ġout",
        "side"
      ],
      [
        "ure",
        "s"
      ],
      [
        "Ġstra",
        "ight"
      ],
      [
        "re",
        "st"
      ],
      [
        "ic",
        "t"
      ],
      [
        "Ġas",
        "k"
      ],
      [
        "u",
        "ally"
      ],
      [
        "Ġst",
        "op"
      ],
      [
        "um",
        "m"
      ],
      [
        "Ġevery",
        "thing"
      ],
      [
        "i",
        "led"
      ],
      [
        "un",
        "a"
      ],
      [
        "Ġem",
        "pt"
      ],
      [
        "Ġhe",
        "art"
      ],
      [
        "Ġre",
        "d"
      ],
      [
        "Ġa",
        "w"
      ],
      [
        "it",
        "h"
      ],
      [
        "Ġan",
        "sw"
      ],
      [
        "Ġcau",
        "ght"
      ],
      [
        "p",
        "ly"
      ],
      [
        "Ġc",
        "orn"
      ],
      [
        "ĠI",
        "f"
      ],
      [
        "Ġide",
        "a"
      ],
      [
        "ic",
        "ked"
      ],
      [
        "Ġc",
        "at"
      ],
      [
        "im",
        "es"
      ],
      [
        "Ġmo",
        "ve"
      ],
      [
        "Ġke",
        "pt"
      ],
      [
        "Ġlif",
        "e"
      ],
      [
        "Ġbelie",
        "ve"
      ],
      [
        "Ġb",
        "est"
      ],
      [
        "Ġis",
        "n"
      ],
      [
        "Ġword",
        "s"
      ],
      [
        "en",
        "e"
      ],
      [
        "Ġpass",
        "ed"
      ],
      [
        "Ġsto",
        "pped"
      ],
      [
        "Ġevery",
        "one"
      ],
      [
        "N",
        "ot"
      ],
      [
        "Ġ",
        "ri"
      ],
      [
        "Ġwhe",
        "ther"
      ],
      [
        "Ġsay",
        "ing"
      ],
      [
        "Ġb",
        "ur"
      ],
      [
        "rou",
        "ch"
      ],
      [
        "Ġde",
        "f"
      ],
      [
        "ĠSlyther",
        "in"
      ],
      [
        "Ġslow",
        "ly"
      ],
      [
        "ĠS",
        "c"
      ],
      [
        "Ġsupp",
        "osed"
      ],
      [
        "w",
        "here"
      ],
      [
        "Ġs",
        "ir"
      ],
      [
        "Ġmut",
        "tered"
      ],
      [
        "b",
        "ut"
      ],
      [
        "Ġh",
        "it"
      ],
      [
        "Ġho",
        "pe"
      ],
      [
        "c",
        "c"
      ],
      [
        "Ġa",
        "ct"
      ],
      [
        "Ġget",
        "ting"
      ],
      [
        "Ġ",
        "("
      ],
      [
        "ĠA",
        "l"
      ],
      [
        "ack",
        "ed"
      ],
      [
        "ĠMugg",
        "le"
      ],
      [
        "Ġh",
        "ome"
      ],
      [
        "Ġha",
        "ven"
      ],
      [
        "ĠL",
        "una"
      ],
      [
        "c",
        "ing"
      ],
      [
        "Ġs",
        "ince"
      ],
      [
        "Ġwizard",
        "s"
      ],
      [
        "Ġbreat",
        "h"
      ],
      [
        "Ġsome",
        "one"
      ],
      [
        "Ġp",
        "ot"
      ],
      [
        "Ġb",
        "reak"
      ],
      [
        "Ġsh",
        "ort"
      ],
      [
        "Ġgre",
        "en"
      ],
      [
        "s",
        "o"
      ],
      [
        "Ġt",
        "aken"
      ],
      [
        "âĢ¦",
        "'"
      ],
      [
        "ĠC",
        "lo"
      ],
      [
        "ĠMad",
        "am"
      ],
      [
        "ĠHe",
        "ad"
      ],
      [
        "f",
        "ort"
      ],
      [
        "r",
        "um"
      ],
      [
        "ed",
        "ric"
      ],
      [
        "ll",
        "ed"
      ],
      [
        "ag",
        "ed"
      ],
      [
        "ri",
        "f"
      ],
      [
        "Ġpl",
        "ay"
      ],
      [
        "Ġst",
        "ay"
      ],
      [
        "ri",
        "ble"
      ],
      [
        "ce",
        "pt"
      ],
      [
        "H",
        "E"
      ],
      [
        "Ġf",
        "all"
      ],
      [
        "j",
        "ect"
      ],
      [
        "Ġs",
        "ort"
      ],
      [
        "Ġst",
        "one"
      ],
      [
        "ĠC",
        "rouch"
      ],
      [
        "Ġmo",
        "ved"
      ],
      [
        "l",
        "ight"
      ],
      [
        "ĠF",
        "l"
      ],
      [
        "Ġex",
        "t"
      ],
      [
        "Ġlau",
        "gh"
      ],
      [
        "Ġhold",
        "ing"
      ],
      [
        "re",
        "acher"
      ],
      [
        "Ġ-",
        "âĢĿ"
      ],
      [
        "Ġle",
        "a"
      ],
      [
        "orn",
        "ing"
      ],
      [
        "Ġdis",
        "app"
      ],
      [
        "D",
        "on"
      ],
      [
        "Ġle",
        "ave"
      ],
      [
        "urs",
        "ley"
      ],
      [
        "Ġunderst",
        "and"
      ],
      [
        "i",
        "er"
      ],
      [
        "ĠD",
        "ursley"
      ],
      [
        "Ġcorrid",
        "or"
      ],
      [
        "p",
        "he"
      ],
      [
        "at",
        "i"
      ],
      [
        "g",
        "ing"
      ],
      [
        "re",
        "l"
      ],
      [
        "Ġd",
        "i"
      ],
      [
        "ĠA",
        "unt"
      ],
      [
        "Ġno",
        "se"
      ],
      [
        "Ġqu",
        "est"
      ],
      [
        "Ġcom",
        "p"
      ],
      [
        "ĠClo",
        "ak"
      ],
      [
        "I",
        "f"
      ],
      [
        "Ġb",
        "us"
      ],
      [
        "Ġhad",
        "n"
      ],
      [
        "Ġapp",
        "eared"
      ],
      [
        "ĠTh",
        "is"
      ],
      [
        "Ġloud",
        "ly"
      ],
      [
        "ow",
        "s"
      ],
      [
        "Ġex",
        "am"
      ],
      [
        "Ġshould",
        "er"
      ],
      [
        "Ġt",
        "aking"
      ],
      [
        "id",
        "ed"
      ],
      [
        "Ġsil",
        "ence"
      ],
      [
        "Ġtal",
        "k"
      ],
      [
        "Ġal",
        "one"
      ],
      [
        "Ġempt",
        "y"
      ],
      [
        "Ġwe",
        "aring"
      ],
      [
        "Ġte",
        "acher"
      ],
      [
        "Ġminut",
        "es"
      ],
      [
        "Ġm",
        "aking"
      ],
      [
        "ĠC",
        "edric"
      ],
      [
        "id",
        "ing"
      ],
      [
        "an",
        "ks"
      ],
      [
        "Ġ",
        "round"
      ],
      [
        "Ġy",
        "es"
      ],
      [
        "il",
        "ity"
      ],
      [
        "ĠA",
        "ll"
      ],
      [
        "Ġpoin",
        "t"
      ],
      [
        "m",
        "an"
      ],
      [
        "Ġpoin",
        "ted"
      ],
      [
        "Ġsur",
        "pr"
      ],
      [
        "ĠH",
        "ow"
      ],
      [
        "Ġar",
        "ri"
      ],
      [
        "n",
        "ow"
      ],
      [
        "er",
        "tain"
      ],
      [
        "te",
        "nd"
      ],
      [
        "h",
        "aps"
      ],
      [
        "us",
        "hed"
      ],
      [
        "The",
        "y"
      ],
      [
        "ĠT",
        "hat"
      ],
      [
        "ra",
        "ve"
      ],
      [
        "Ġsil",
        "ver"
      ],
      [
        "Ġfoll",
        "owed"
      ],
      [
        "Ġre",
        "l"
      ],
      [
        "Ġarm",
        "s"
      ],
      [
        "re",
        "ad"
      ],
      [
        "Ġb",
        "u"
      ],
      [
        "Ġd",
        "ire"
      ],
      [
        "Ġm",
        "orning"
      ],
      [
        "ĠA",
        "t"
      ],
      [
        "Ġspe",
        "ll"
      ],
      [
        "a",
        "le"
      ],
      [
        "Ġh",
        "at"
      ],
      [
        "ĠF",
        "or"
      ],
      [
        "k",
        "en"
      ],
      [
        "Ġp",
        "ower"
      ],
      [
        "un",
        "ia"
      ],
      [
        "ĠF",
        "il"
      ],
      [
        "Ġpoin",
        "ting"
      ],
      [
        "Ġremem",
        "ber"
      ],
      [
        "b",
        "o"
      ],
      [
        "Ġst",
        "uff"
      ],
      [
        "Ġclo",
        "ak"
      ],
      [
        "f",
        "ect"
      ],
      [
        "in",
        "y"
      ],
      [
        "ĠB",
        "ill"
      ],
      [
        "Ġwat",
        "ched"
      ],
      [
        "s",
        "p"
      ],
      [
        "Ġb",
        "ag"
      ],
      [
        "ous",
        "ly"
      ],
      [
        "Ġmat",
        "ter"
      ],
      [
        "Ġme",
        "et"
      ],
      [
        "Ġclo",
        "sed"
      ],
      [
        "Ġte",
        "am"
      ],
      [
        "ress",
        "ion"
      ],
      [
        "W",
        "hy"
      ],
      [
        "Ġwh",
        "ite"
      ],
      [
        "ĠO",
        "n"
      ],
      [
        "Ġs",
        "er"
      ],
      [
        "Ġf",
        "ly"
      ],
      [
        "Ġc",
        "e"
      ],
      [
        "Ġm",
        "on"
      ],
      [
        "Ġin",
        "ter"
      ],
      [
        "Ġk",
        "ind"
      ],
      [
        "Ġcom",
        "ple"
      ],
      [
        "Ġother",
        "s"
      ],
      [
        "ĠPet",
        "unia"
      ],
      [
        "Ġb",
        "right"
      ],
      [
        "an",
        "ced"
      ],
      [
        "The",
        "re"
      ],
      [
        "Ġac",
        "c"
      ],
      [
        "act",
        "ly"
      ],
      [
        "Ġdes",
        "k"
      ],
      [
        "r",
        "or"
      ],
      [
        "ĠR",
        "iddle"
      ],
      [
        "Ġex",
        "c"
      ],
      [
        "Ġsp",
        "ot"
      ],
      [
        "Ġf",
        "le"
      ],
      [
        "Ġse",
        "ver"
      ],
      [
        "Ġch",
        "air"
      ],
      [
        "Ġhur",
        "ried"
      ],
      [
        "Ġcomm",
        "on"
      ],
      [
        "Ġthink",
        "ing"
      ],
      [
        "ĠMin",
        "ister"
      ],
      [
        "ic",
        "ed"
      ],
      [
        "Ġcorn",
        "er"
      ],
      [
        "Ġsever",
        "al"
      ],
      [
        "Ġp",
        "at"
      ],
      [
        "Ġre",
        "f"
      ],
      [
        "se",
        "lves"
      ],
      [
        "Ġf",
        "ast"
      ],
      [
        "Ġha",
        "ving"
      ],
      [
        "ur",
        "ing"
      ],
      [
        "Ġsu",
        "ch"
      ],
      [
        "ement",
        "ors"
      ],
      [
        "v",
        "ent"
      ],
      [
        "Ġm",
        "is"
      ],
      [
        "Ġk",
        "it"
      ],
      [
        "ant",
        "ly"
      ],
      [
        "Ġwat",
        "er"
      ],
      [
        "S",
        "he"
      ],
      [
        "as",
        "hed"
      ],
      [
        "ĠB",
        "e"
      ],
      [
        "oy",
        "le"
      ],
      [
        "ĠFil",
        "ch"
      ],
      [
        "Ġr",
        "u"
      ],
      [
        "Ġf",
        "ac"
      ],
      [
        "s",
        "it"
      ],
      [
        "or",
        "c"
      ],
      [
        "Ġha",
        "ll"
      ],
      [
        "im",
        "b"
      ],
      [
        "Ġsh",
        "aking"
      ],
      [
        "Ġb",
        "ody"
      ],
      [
        "Ġdoes",
        "n"
      ],
      [
        "i",
        "red"
      ],
      [
        "n",
        "o"
      ],
      [
        "Ġm",
        "et"
      ],
      [
        "lo",
        "ck"
      ],
      [
        "Ġfam",
        "ily"
      ],
      [
        "Ġs",
        "ent"
      ],
      [
        "re",
        "y"
      ],
      [
        "ĠM",
        "y"
      ],
      [
        "Ġse",
        "at"
      ],
      [
        "Ġus",
        "ual"
      ],
      [
        "-",
        "-"
      ],
      [
        "ver",
        "s"
      ],
      [
        "Ġpers",
        "on"
      ],
      [
        "ĠK",
        "reacher"
      ],
      [
        "Ġspe",
        "ak"
      ],
      [
        "Ġm",
        "ist"
      ],
      [
        "Ġin",
        "s"
      ],
      [
        "Ġatt",
        "em"
      ],
      [
        "Ġbook",
        "s"
      ],
      [
        "Ġl",
        "ay"
      ],
      [
        "Ġth",
        "ick"
      ],
      [
        "ch",
        "ment"
      ],
      [
        "li",
        "ke"
      ],
      [
        "Ġdire",
        "ct"
      ],
      [
        "as",
        "ed"
      ],
      [
        "Ġd",
        "anger"
      ],
      [
        "Ġne",
        "ar"
      ],
      [
        "Ġgi",
        "ven"
      ],
      [
        "Ġyell",
        "ed"
      ],
      [
        "n",
        "ts"
      ],
      [
        "Ġhe",
        "ld"
      ],
      [
        "Ġhe",
        "av"
      ],
      [
        "ra",
        "it"
      ],
      [
        "Ġus",
        "ed"
      ],
      [
        "Ġwat",
        "ch"
      ],
      [
        "unn",
        "ing"
      ],
      [
        "Ġpar",
        "chment"
      ],
      [
        "Ġt",
        "en"
      ],
      [
        "Ġs",
        "orry"
      ],
      [
        "es",
        "c"
      ],
      [
        "ĠC",
        "ho"
      ],
      [
        "Ġpo",
        "cket"
      ],
      [
        "r",
        "ance"
      ],
      [
        "is",
        "ing"
      ],
      [
        "Ġwr",
        "ong"
      ],
      [
        "c",
        "hen"
      ],
      [
        "Ġt",
        "rou"
      ],
      [
        "Ġne",
        "ck"
      ],
      [
        "Ġbl",
        "ood"
      ],
      [
        "ear",
        "s"
      ],
      [
        "Ġsw",
        "e"
      ],
      [
        "idd",
        "en"
      ],
      [
        "a",
        "ven"
      ],
      [
        "p",
        "s"
      ],
      [
        "t",
        "he"
      ],
      [
        "as",
        "h"
      ],
      [
        "i",
        "pped"
      ],
      [
        "Ġ",
        "ed"
      ],
      [
        "Ġcon",
        "f"
      ],
      [
        "Ġun",
        "c"
      ],
      [
        "ib",
        "ility"
      ],
      [
        "Ġkit",
        "chen"
      ],
      [
        "ry",
        "ing"
      ],
      [
        "Ġg",
        "az"
      ],
      [
        "ent",
        "y"
      ],
      [
        "Ġsu",
        "b"
      ],
      [
        "Ġpr",
        "ot"
      ],
      [
        "Ġex",
        "pl"
      ],
      [
        "Ġcontin",
        "ued"
      ],
      [
        "Ġa",
        "dded"
      ],
      [
        "Ġp",
        "ort"
      ],
      [
        "ĠL",
        "ock"
      ],
      [
        "Ġbur",
        "st"
      ],
      [
        "e",
        "ad"
      ],
      [
        "h",
        "art"
      ],
      [
        "Ġs",
        "im"
      ],
      [
        "Ġf",
        "ight"
      ],
      [
        "ic",
        "ul"
      ],
      [
        "ĠS",
        "n"
      ],
      [
        "ĠF",
        "le"
      ],
      [
        "Ġtell",
        "ing"
      ],
      [
        "D",
        "o"
      ],
      [
        "Ġc",
        "up"
      ],
      [
        "or",
        "k"
      ],
      [
        "Ġv",
        "an"
      ],
      [
        "Ġm",
        "ur"
      ],
      [
        "Ġlo",
        "st"
      ],
      [
        "awn",
        "ey"
      ],
      [
        "rel",
        "awney"
      ],
      [
        "z",
        "e"
      ],
      [
        "Ġo",
        "dd"
      ],
      [
        "ĠT",
        "relawney"
      ],
      [
        "Ġmo",
        "ving"
      ],
      [
        "Ġfing",
        "ers"
      ],
      [
        "s",
        "ing"
      ],
      [
        "Ġm",
        "ay"
      ],
      [
        "ĠT",
        "on"
      ],
      [
        "ook",
        "ing"
      ],
      [
        "te",
        "rest"
      ],
      [
        "c",
        "ase"
      ],
      [
        "ĠB",
        "ag"
      ],
      [
        "ĠB",
        "ell"
      ],
      [
        "iz",
        "e"
      ],
      [
        "ĠLock",
        "hart"
      ],
      [
        "Ġsh",
        "ut"
      ],
      [
        "Ġcomple",
        "te"
      ],
      [
        "a",
        "bb"
      ],
      [
        "Ġd",
        "ou"
      ],
      [
        "Ġsa",
        "f"
      ],
      [
        "am",
        "ing"
      ],
      [
        ".",
        "âĢ¦âĢĿ"
      ],
      [
        "t",
        "ail"
      ],
      [
        "Ġfor",
        "g"
      ],
      [
        "Ġsm",
        "ile"
      ],
      [
        "Ġexpe",
        "ct"
      ],
      [
        "und",
        "red"
      ],
      [
        "Ġansw",
        "er"
      ],
      [
        "Ġf",
        "ree"
      ],
      [
        "Ġf",
        "act"
      ],
      [
        "Ġn",
        "umb"
      ],
      [
        "Ġe",
        "ither"
      ],
      [
        "Ġst",
        "re"
      ],
      [
        "Ġre",
        "p"
      ],
      [
        "ĠK",
        "rum"
      ],
      [
        "Ġd",
        "ied"
      ],
      [
        "Ġp",
        "are"
      ],
      [
        "ove",
        "red"
      ],
      [
        "in",
        "ing"
      ],
      [
        "Ġthem",
        "selves"
      ],
      [
        "Ġex",
        "actly"
      ],
      [
        "ĠN",
        "o"
      ],
      [
        "K",
        "now"
      ],
      [
        "Ġf",
        "ive"
      ],
      [
        "Ġin",
        "c"
      ],
      [
        "Ġin",
        "terest"
      ],
      [
        "Ġday",
        "s"
      ],
      [
        "Ġdiff",
        "ere"
      ],
      [
        "Ġd",
        "ream"
      ],
      [
        "ri",
        "ve"
      ],
      [
        "ĠG",
        "reat"
      ],
      [
        "rac",
        "o"
      ],
      [
        "b",
        "r"
      ],
      [
        "ou",
        "n"
      ],
      [
        "ĠG",
        "oyle"
      ],
      [
        "Ġr",
        "an"
      ],
      [
        "Ġde",
        "ar"
      ],
      [
        "ore",
        "d"
      ],
      [
        "and",
        "ed"
      ],
      [
        "Ġso",
        "on"
      ],
      [
        "t",
        "om"
      ],
      [
        "in",
        "t"
      ],
      [
        "Ġh",
        "undred"
      ],
      [
        "le",
        "t"
      ],
      [
        "rabb",
        "e"
      ],
      [
        "w",
        "o"
      ],
      [
        "Ġyou",
        "ng"
      ],
      [
        "ĠT",
        "HE"
      ],
      [
        "ru",
        "x"
      ],
      [
        "orc",
        "rux"
      ],
      [
        "ĠF",
        "ire"
      ],
      [
        "ĠFle",
        "ur"
      ],
      [
        "Ġt",
        "iny"
      ],
      [
        "Ġwit",
        "ch"
      ],
      [
        "ĠTon",
        "ks"
      ],
      [
        "Ġb",
        "ene"
      ],
      [
        "ĠH",
        "orcrux"
      ],
      [
        "Ġde",
        "ath"
      ],
      [
        "Ġsp",
        "oke"
      ],
      [
        "ang",
        "ed"
      ],
      [
        "Ġpre",
        "s"
      ],
      [
        "Ġwait",
        "ing"
      ],
      [
        "Ġport",
        "rait"
      ],
      [
        "y",
        "e"
      ],
      [
        "Ġt",
        "ou"
      ],
      [
        "ic",
        "ally"
      ],
      [
        "Ġsh",
        "ook"
      ],
      [
        "Ġpl",
        "an"
      ],
      [
        "Ġreturn",
        "ed"
      ],
      [
        "Ġbe",
        "ll"
      ],
      [
        "ĠO",
        "r"
      ],
      [
        "Ġturn",
        "ing"
      ],
      [
        "Ġsle",
        "ep"
      ],
      [
        "p",
        "ing"
      ],
      [
        "ing",
        "ing"
      ],
      [
        "ĠâĢ",
        "Ŀ"
      ],
      [
        "Ġst",
        "air"
      ],
      [
        "Ġne",
        "arly"
      ],
      [
        "Ġkn",
        "ock"
      ],
      [
        "ĠC",
        "rabbe"
      ],
      [
        "Ġle",
        "ast"
      ],
      [
        "Ġsp",
        "r"
      ],
      [
        "Ġsna",
        "ke"
      ],
      [
        "Ġdro",
        "pped"
      ],
      [
        "a",
        "ff"
      ],
      [
        "Ġsh",
        "ar"
      ],
      [
        "Ġab",
        "ove"
      ],
      [
        "Ġpare",
        "nts"
      ],
      [
        "Ġsh",
        "all"
      ],
      [
        "ain",
        "ing"
      ],
      [
        "Ġno",
        "ise"
      ],
      [
        "nt",
        "ly"
      ],
      [
        "ĠBag",
        "man"
      ],
      [
        "c",
        "ent"
      ],
      [
        "Ġst",
        "airs"
      ],
      [
        "ĠS",
        "o"
      ],
      [
        "Ġnot",
        "iced"
      ],
      [
        "Ġag",
        "o"
      ],
      [
        "ive",
        "ly"
      ],
      [
        "inn",
        "ing"
      ],
      [
        "ĠCh",
        "arm"
      ],
      [
        "c",
        "es"
      ],
      [
        "ing",
        "ly"
      ],
      [
        "ĠD",
        "raco"
      ],
      [
        "st",
        "airs"
      ],
      [
        "ĠDursley",
        "s"
      ],
      [
        "Ġal",
        "so"
      ],
      [
        "ap",
        "ter"
      ],
      [
        "Ġdark",
        "ness"
      ],
      [
        "Ġp",
        "ur"
      ],
      [
        "Ġst",
        "eps"
      ],
      [
        "O",
        "U"
      ],
      [
        "e",
        "ak"
      ],
      [
        "Ġt",
        "ri"
      ],
      [
        "Ġw",
        "ide"
      ],
      [
        "et",
        "s"
      ],
      [
        "um",
        "ped"
      ],
      [
        "Ġent",
        "ered"
      ],
      [
        "a",
        "x"
      ],
      [
        "Ġg",
        "as"
      ],
      [
        "ro",
        "ll"
      ],
      [
        "Ġr",
        "un"
      ],
      [
        "Ġcl",
        "ut"
      ],
      [
        "Ġhur",
        "t"
      ],
      [
        "Ġt",
        "imes"
      ],
      [
        "Ġl",
        "ying"
      ],
      [
        "Ġre",
        "pe"
      ],
      [
        "Ġapp",
        "ro"
      ],
      [
        "st",
        "r"
      ],
      [
        "Ġgo",
        "bl"
      ],
      [
        "up",
        "id"
      ],
      [
        "ĠE",
        "very"
      ],
      [
        "in",
        "ation"
      ],
      [
        "ut",
        "h"
      ],
      [
        "ck",
        "on"
      ],
      [
        "Ġex",
        "cept"
      ],
      [
        "Ġgold",
        "en"
      ],
      [
        "Ġbene",
        "ath"
      ],
      [
        "Ġf",
        "a"
      ],
      [
        "Ġre",
        "g"
      ],
      [
        "Ġdoor",
        "s"
      ],
      [
        "a",
        "ld"
      ],
      [
        "m",
        "as"
      ],
      [
        "âĢ",
        "Ķ"
      ],
      [
        "as",
        "on"
      ],
      [
        "Ġso",
        "ft"
      ],
      [
        "are",
        "ly"
      ],
      [
        "Ġche",
        "ck"
      ],
      [
        "Ġn",
        "erv"
      ],
      [
        "Ġe",
        "ar"
      ],
      [
        "Ġsh",
        "ock"
      ],
      [
        "Ġche",
        "st"
      ],
      [
        "Ġfin",
        "ished"
      ],
      [
        "Ġlea",
        "ving"
      ],
      [
        "w",
        "ig"
      ],
      [
        "Ġs",
        "us"
      ],
      [
        "Ġb",
        "urn"
      ],
      [
        "Ġc",
        "arry"
      ],
      [
        "ĠP",
        "r"
      ],
      [
        "Ġs",
        "umm"
      ],
      [
        "ou",
        "nt"
      ],
      [
        "Ġc",
        "ase"
      ],
      [
        "Ġe",
        "ars"
      ],
      [
        "ro",
        "d"
      ],
      [
        "ab",
        "in"
      ],
      [
        "Ġground",
        "s"
      ],
      [
        "bo",
        "ard"
      ],
      [
        "Ġce",
        "iling"
      ],
      [
        "r",
        "ist"
      ],
      [
        "Ġw",
        "om"
      ],
      [
        "Ġe",
        "v"
      ],
      [
        "am",
        "ed"
      ],
      [
        "Ġne",
        "are"
      ],
      [
        "Ġwho",
        "se"
      ],
      [
        "art",
        "ment"
      ],
      [
        "Ġsp",
        "l"
      ],
      [
        "ap",
        "t"
      ],
      [
        "Ġwr",
        "it"
      ],
      [
        "Ġfriend",
        "s"
      ],
      [
        "M",
        "y"
      ],
      [
        "Ġd",
        "raw"
      ],
      [
        "ress",
        "ed"
      ],
      [
        "Ġtrou",
        "ble"
      ],
      [
        "C",
        "ome"
      ],
      [
        "re",
        "n"
      ],
      [
        "ed",
        "wig"
      ],
      [
        "Ġo",
        "pp"
      ],
      [
        "Ġm",
        "id"
      ],
      [
        "an",
        "ed"
      ],
      [
        "ĠDe",
        "an"
      ],
      [
        "Ġpr",
        "act"
      ],
      [
        "Ġquest",
        "ion"
      ],
      [
        "Ġstair",
        "case"
      ],
      [
        "v",
        "o"
      ],
      [
        "Ġth",
        "rew"
      ],
      [
        "Ġst",
        "upid"
      ],
      [
        "st",
        "er"
      ],
      [
        "Ġgi",
        "ant"
      ],
      [
        "rist",
        "mas"
      ],
      [
        "Ġc",
        "oll"
      ],
      [
        "ĠN",
        "ow"
      ],
      [
        "Ġcle",
        "ar"
      ],
      [
        "vis",
        "ibility"
      ],
      [
        "Ġarri",
        "ved"
      ],
      [
        "Ġ",
        ".âĢĿ"
      ],
      [
        "Ġc",
        "ross"
      ],
      [
        "Ġm",
        "ad"
      ],
      [
        "st",
        "ick"
      ],
      [
        "ri",
        "ly"
      ],
      [
        "Ġman",
        "aged"
      ],
      [
        "Ġfle",
        "w"
      ],
      [
        "Ġ",
        "esc"
      ],
      [
        "Ġs",
        "ix"
      ],
      [
        "Ġleg",
        "s"
      ],
      [
        "E",
        "r"
      ],
      [
        "u",
        "c"
      ],
      [
        "ght",
        "er"
      ],
      [
        "ak",
        "es"
      ],
      [
        "ĠCh",
        "ristmas"
      ],
      [
        "Ġmagic",
        "al"
      ],
      [
        "ag",
        "es"
      ],
      [
        "Ġch",
        "ance"
      ],
      [
        "N",
        "ow"
      ],
      [
        "Ġt",
        "on"
      ],
      [
        "at",
        "ri"
      ],
      [
        "ri",
        "ll"
      ],
      [
        "ie",
        "f"
      ],
      [
        "ĠCh",
        "apter"
      ],
      [
        "Ġple",
        "ase"
      ],
      [
        "rif",
        "ied"
      ],
      [
        "e",
        "ed"
      ],
      [
        "Ġlook",
        "s"
      ],
      [
        "ap",
        "er"
      ],
      [
        "atri",
        "x"
      ],
      [
        "P",
        "ro"
      ],
      [
        "Ġa",
        "p"
      ],
      [
        "ĠH",
        "edwig"
      ],
      [
        "ĠR",
        "e"
      ],
      [
        "Ġr",
        "unning"
      ],
      [
        "Ġt",
        "ent"
      ],
      [
        "ĠH",
        "er"
      ],
      [
        "Ġin",
        "t"
      ],
      [
        "Ġen",
        "orm"
      ],
      [
        "Ġatt",
        "ack"
      ],
      [
        "Ġimp",
        "ort"
      ],
      [
        "Ġglass",
        "es"
      ],
      [
        "g",
        "er"
      ],
      [
        "o",
        "ff"
      ],
      [
        "is",
        "hing"
      ],
      [
        "Ġe",
        "as"
      ],
      [
        "us",
        "h"
      ],
      [
        "Ġeven",
        "ing"
      ],
      [
        "Ġwindow",
        "s"
      ],
      [
        "Ġexp",
        "ression"
      ],
      [
        "Ġp",
        "ict"
      ],
      [
        "al",
        "m"
      ],
      [
        "ill",
        "ed"
      ],
      [
        "orm",
        "tail"
      ],
      [
        "Ġbec",
        "ame"
      ],
      [
        "Ġwall",
        "s"
      ],
      [
        "E",
        "R"
      ],
      [
        "n",
        "ot"
      ],
      [
        "Ġc",
        "ent"
      ],
      [
        "us",
        "ed"
      ],
      [
        "ĠO",
        "ne"
      ],
      [
        "Ġsay",
        "s"
      ],
      [
        "Ġlong",
        "er"
      ],
      [
        "G",
        "ood"
      ],
      [
        "w",
        "ork"
      ],
      [
        "Ġw",
        "arn"
      ],
      [
        "Ġc",
        "reat"
      ],
      [
        "Ġp",
        "ie"
      ],
      [
        "ĠW",
        "ith"
      ],
      [
        "Ġno",
        "body"
      ],
      [
        "Ġwor",
        "ld"
      ],
      [
        "Ġcl",
        "imb"
      ],
      [
        "Ġgl",
        "anced"
      ],
      [
        "Ġmat",
        "ch"
      ],
      [
        "Ġvan",
        "ished"
      ],
      [
        "Ġforg",
        "ot"
      ],
      [
        "Ġs",
        "on"
      ],
      [
        "Ġo",
        "cc"
      ],
      [
        "Ġc",
        "ertain"
      ],
      [
        "Ġe",
        "ff"
      ],
      [
        "Ġse",
        "ized"
      ],
      [
        "Ġpre",
        "ss"
      ],
      [
        "Ġpot",
        "ion"
      ],
      [
        "ĠBell",
        "atrix"
      ],
      [
        "I",
        "N"
      ],
      [
        "Ġwith",
        "in"
      ],
      [
        "Ġtr",
        "unk"
      ],
      [
        "ol",
        "t"
      ],
      [
        "r",
        "up"
      ],
      [
        "u",
        "g"
      ],
      [
        "Ġme",
        "ant"
      ],
      [
        "Ġent",
        "rance"
      ],
      [
        "Ġwom",
        "an"
      ],
      [
        "id",
        "ent"
      ],
      [
        "Ġin",
        "form"
      ],
      [
        "Ġre",
        "ady"
      ],
      [
        "Ġem",
        "er"
      ],
      [
        "Ġnumb",
        "er"
      ],
      [
        "A",
        "ll"
      ],
      [
        "b",
        "us"
      ],
      [
        "l",
        "in"
      ],
      [
        "Ġf",
        "if"
      ],
      [
        "Ġbr",
        "other"
      ],
      [
        "ĠIn",
        "visibility"
      ],
      [
        "Ġenorm",
        "ous"
      ],
      [
        "b",
        "ably"
      ],
      [
        "s",
        "er"
      ],
      [
        "Ġh",
        "op"
      ],
      [
        "Ġb",
        "ar"
      ],
      [
        "as",
        "k"
      ],
      [
        "Ġth",
        "r"
      ],
      [
        "ĠW",
        "ood"
      ],
      [
        "Ġkn",
        "own"
      ],
      [
        "og",
        "n"
      ],
      [
        "Ġher",
        "self"
      ],
      [
        "ĠW",
        "ormtail"
      ],
      [
        "ie",
        "w"
      ],
      [
        "Ġsw",
        "ord"
      ],
      [
        "Ġwal",
        "king"
      ],
      [
        "Ġper",
        "haps"
      ],
      [
        "l",
        "ooking"
      ],
      [
        "in",
        "ted"
      ],
      [
        "Ġpull",
        "ing"
      ],
      [
        "B",
        "e"
      ],
      [
        "Ġ",
        "ve"
      ],
      [
        "Ġl",
        "uck"
      ],
      [
        "Ġknow",
        "s"
      ],
      [
        "Ġch",
        "o"
      ],
      [
        "Ġfin",
        "ally"
      ],
      [
        "k",
        "es"
      ],
      [
        "Ġ",
        "ign"
      ],
      [
        "Ġc",
        "ut"
      ],
      [
        "Ġe",
        "lf"
      ],
      [
        "ĠC",
        "r"
      ],
      [
        "Ġle",
        "ad"
      ],
      [
        "ie",
        "ld"
      ],
      [
        "ĠPro",
        "phe"
      ],
      [
        "Ġang",
        "ry"
      ],
      [
        "Th",
        "is"
      ],
      [
        "W",
        "here"
      ],
      [
        "o",
        "om"
      ],
      [
        "al",
        "s"
      ],
      [
        "ation",
        "s"
      ],
      [
        "Ġsaf",
        "e"
      ],
      [
        "Ġs",
        "un"
      ],
      [
        "Ġth",
        "in"
      ],
      [
        "Ġsh",
        "ad"
      ],
      [
        "ink",
        "ing"
      ],
      [
        "te",
        "en"
      ],
      [
        "Ġbel",
        "ow"
      ],
      [
        "Ġremem",
        "b"
      ],
      [
        "Ġbro",
        "ke"
      ],
      [
        "Ġrepe",
        "ated"
      ],
      [
        "Ġw",
        "ood"
      ],
      [
        "re",
        "ly"
      ],
      [
        "Ġin",
        "v"
      ],
      [
        "am",
        "us"
      ],
      [
        "Ġwand",
        "s"
      ],
      [
        "Ġtr",
        "ain"
      ],
      [
        "Ġang",
        "rily"
      ],
      [
        "Ġkill",
        "ed"
      ],
      [
        "Ġcomplete",
        "ly"
      ],
      [
        "Ġ",
        "er"
      ],
      [
        "Ġf",
        "ig"
      ],
      [
        "Ġto",
        "r"
      ],
      [
        "Ġc",
        "ir"
      ],
      [
        "Ġp",
        "ale"
      ],
      [
        "ic",
        "es"
      ],
      [
        "Ġas",
        "s"
      ],
      [
        "ect",
        "ion"
      ],
      [
        "unn",
        "y"
      ],
      [
        "Ġjo",
        "b"
      ],
      [
        "Ġrec",
        "ogn"
      ],
      [
        "k",
        "ab"
      ],
      [
        "z",
        "kab"
      ],
      [
        "ĠS",
        "h"
      ],
      [
        "Ġhapp",
        "y"
      ],
      [
        "ĠJ",
        "ames"
      ],
      [
        "Ġbro",
        "ken"
      ],
      [
        "ĠSe",
        "amus"
      ],
      [
        "Ġfly",
        "ing"
      ],
      [
        "Ġton",
        "ight"
      ],
      [
        "zkab",
        "an"
      ],
      [
        "u",
        "b"
      ],
      [
        "nd",
        "ing"
      ],
      [
        "Ġb",
        "at"
      ],
      [
        "Ġth",
        "ro"
      ],
      [
        "rou",
        "ght"
      ],
      [
        "pe",
        "ct"
      ],
      [
        "Ġany",
        "way"
      ],
      [
        "ĠAr",
        "ts"
      ],
      [
        "Ġlist",
        "ening"
      ],
      [
        "A",
        "n"
      ],
      [
        "D",
        "id"
      ],
      [
        "Ġha",
        "ng"
      ],
      [
        "an",
        "ing"
      ],
      [
        "ĠD",
        "ementors"
      ],
      [
        "ĠP",
        "ar"
      ],
      [
        "Ġno",
        "dded"
      ],
      [
        "Ġsm",
        "iling"
      ],
      [
        "Ġtr",
        "ue"
      ],
      [
        "Ġfl",
        "at"
      ],
      [
        "Ġcle",
        "arly"
      ],
      [
        "Ġwee",
        "k"
      ],
      [
        "A",
        "R"
      ],
      [
        "re",
        "ll"
      ],
      [
        "ar",
        "row"
      ],
      [
        "is",
        "on"
      ],
      [
        "ĠA",
        "zkaban"
      ],
      [
        "Ġsupp",
        "ose"
      ],
      [
        "Ġless",
        "on"
      ],
      [
        "Ġinst",
        "ead"
      ],
      [
        "Ġmem",
        "ory"
      ],
      [
        "L",
        "ook"
      ],
      [
        "c",
        "ause"
      ],
      [
        "Ġm",
        "ention"
      ],
      [
        "Ġe",
        "gg"
      ],
      [
        "ch",
        "o"
      ],
      [
        "ink",
        "y"
      ],
      [
        "ĠN",
        "ot"
      ],
      [
        "ick",
        "ing"
      ],
      [
        "are",
        "ntly"
      ],
      [
        "Ġhead",
        "s"
      ],
      [
        "Ġsecond",
        "s"
      ],
      [
        "ĠAl",
        "bus"
      ],
      [
        "g",
        "hed"
      ],
      [
        "t",
        "ly"
      ],
      [
        "ĠA",
        "g"
      ],
      [
        "ĠE",
        "ater"
      ],
      [
        "inn",
        "er"
      ],
      [
        "cl",
        "aw"
      ],
      [
        "Ġvis",
        "it"
      ],
      [
        "aven",
        "claw"
      ],
      [
        "Pro",
        "fessor"
      ],
      [
        "O",
        "R"
      ],
      [
        "is",
        "k"
      ],
      [
        "Ġre",
        "ason"
      ],
      [
        "al",
        "ed"
      ],
      [
        "Ġsh",
        "ow"
      ],
      [
        "Ġback",
        "ward"
      ],
      [
        "Ġcon",
        "s"
      ],
      [
        "ĠE",
        "r"
      ],
      [
        "Ġtre",
        "es"
      ],
      [
        "ĠSn",
        "itch"
      ],
      [
        "i",
        "ke"
      ],
      [
        "m",
        "aster"
      ],
      [
        "ou",
        "l"
      ],
      [
        "Ġb",
        "arely"
      ],
      [
        "Ġmon",
        "th"
      ],
      [
        "ĠProphe",
        "t"
      ],
      [
        "r",
        "im"
      ],
      [
        "Ġm",
        "iss"
      ],
      [
        "Ġth",
        "row"
      ],
      [
        "Ġe",
        "cho"
      ],
      [
        "Ġ-",
        "-"
      ],
      [
        "ĠMagic",
        "al"
      ],
      [
        "Ġ",
        "z"
      ],
      [
        "Ġst",
        "ret"
      ],
      [
        "ĠS",
        "ever"
      ],
      [
        "ĠR",
        "avenclaw"
      ],
      [
        "ain",
        "s"
      ],
      [
        "ĠW",
        "izard"
      ],
      [
        "Ġdrag",
        "on"
      ],
      [
        "Ġ",
        "ought"
      ],
      [
        "id",
        "er"
      ],
      [
        "Ġg",
        "le"
      ],
      [
        "Ġre",
        "ckon"
      ],
      [
        "Ġfor",
        "ced"
      ],
      [
        "Ġdis",
        "c"
      ],
      [
        "Ġb",
        "all"
      ],
      [
        "Ġl",
        "ed"
      ],
      [
        "ĠW",
        "ell"
      ],
      [
        "Ġle",
        "arn"
      ],
      [
        "Ġim",
        "ag"
      ],
      [
        "Ġhor",
        "rible"
      ],
      [
        "Ġdou",
        "b"
      ],
      [
        "Ġ",
        "ir"
      ],
      [
        "Ġ",
        "ill"
      ],
      [
        "Ġt",
        "ears"
      ],
      [
        "Ġa",
        "head"
      ],
      [
        "in",
        "ess"
      ],
      [
        "Ġp",
        "air"
      ],
      [
        "Ġst",
        "ory"
      ],
      [
        "un",
        "ch"
      ],
      [
        "Ġsc",
        "r"
      ],
      [
        "E",
        "x"
      ],
      [
        "it",
        "ted"
      ],
      [
        "Ġm",
        "ir"
      ],
      [
        "Ġsh",
        "ot"
      ],
      [
        "Ġstr",
        "ange"
      ],
      [
        "Ġgi",
        "ving"
      ],
[...]
